¶
{0}
{1}
{2}
{3}
{4}
{5}
{6}
{7}
{8}
{9}
[START]
[END]
0
1
2
3
4
5
6
7
8
9
A
B
C
D
E
F
G
H
I
J
K
L
M
N
O
P
Q
R
S
T
U
V
W
X
Y
Z
a
b
c
d
e
f
g
h
i
j
k
l
m
n
o
p
q
r
s
t
u
v
w
x
y
z
{
}
á
â
ã
ç
é
ê
í
ó
ô
õ
ú
xBShmfmwEwVmELEn2C6Y
G8SC11YlrbGbxzzRJlBK
l7YVZpvmIk7GyDEu3bGd
itwgocHVdCZ97qpLoERh
w3ZzPEzW2E9uPG3R7ZMf
xj10AS7Y5ph7zy7KKmse
87KVCcKijyk8b7ClOoUV
8REH6LHHMr5rMGSyTQej
NvPWKjvb5HPJ8qycpqa1
3MbafssnFc8NxnC19i2f
R1qSRd03VIQTGgwQoXlY
rqXs9lr3E4s9awmxdhSS
0wapz4A8pBqUQAsQbIoQ
UzTIROyjZmgkJ7xjQlnW
IsJU6vfScjlbgK9WWcwN
VFGrUiVcyQZLEK6wTrpM
RhUmg1264QsIqXGRXgij
S2CYVxgvwWVlusNlieab
3w6qpbImmBUKa8EYHJ0q
gp9M4CsD6GuZEEIRohMW
Uq9LqldFMFSfIND75xk0
9bffcN0janGStJlR0oxU
uoIVnpLtdtg367RSBfSK
hhxphxVuBAMri8SIX5Ud
J0mYECu18NXr5FhXmFR2
PoZRk3gzcSabLDZ4Ac5i
RJ8rmOIpQy5CCigSNzbR
0BStPSPNeufj7qtgySf0
AsesL71YzgtMdsEYTdec
al0fRFOZQloELsFEuDxs
foWYj9yC6BKn57cH2FsC
eLVt9pWi6hNSX41eyNii
jsjUWER3JdQScrAMDauk
QQEUbK5t8YbXIBz6W6vB
xZrWLZANxqDEsvr8Phy4
tpEd9PdINa3gnEVQbRaZ
ZxQv2WxDkoFml6mIXCqx
6NTyQToICSZkIsbbNKxb
tQLzLjM4f37WthWD7QRJ
R7iwa4eS47fuO4DpcEkb
AZjAJEPBDQeRyMyyO9XW
NY1cn4BtlpPFTp8ipXqN
CE3PpKxjSl6AqdgAzCfj
ZkK5I7i7vbHTZ6uL5hiK
MiJ4qNabUxXifEzgF9ln
AWvpk6hpR3Npr5XK1XCE
wGYcuSAEgNlogFBiXfN6
4JJMGyIKN17yB5KlyEDR
NuSkn7pf7uwfQdzlMYn3
Rj8HNKmqvCC3vL0RDnQT
0Pqun9EYnzURFzqwVxea
bcEb6uhTF0oKFR5ktWLX
PydluACvxl4wgz5FLrAH
Bon8wNO9Zojl28MmnsQg
3ZlwqgDsVoHSRtOJYZDp
MiiSH2rCpHIYdGVJb3Wu
IddqipiBLUJelxit2nl6
ln7moZgj7NBrRkTOVzDb
IwUlJVpz2QK3KHnxwin7
GRez2xwdltyGZosvlzBr
bBJKoySG7eijA1S5F8lB
TlGQhuIpOvPj2YG8BPYe
JYJm5KGfzDtXODwwNcRi
eSfz1KxUVkhXOXsECnGq
SBByKzcdnZuCu4ogTzbm
f5U0xDqImWSFPXwWB7jp
HX6qgLlkFVEjK3S46aXc
89tDV5V7bZfMqKLey4cV
mOoMyUFI5tbncXP1gOyh
ysWjROI2S5zEJ98fJga4
HnAYwsj4kxL93qQe4jli
PVSizvQOyj0egbtYFAKa
uM7FsH3yaRxbGFEUdC1k
RvEVpq8Dnjs61fQGGnQS
X2sEaEamNAHvr4MEOGIs
wWyDNkBvWbpM4zL1c2vJ
kppjqwSNnEEYHfVfQFYX
icea8vwDIAQ2Z0IY9HVp
DeTNPbNGoEIW1dGdfcG2
hE7GViTXr71rgkjUgHSl
bamXu7SzXoM0HiUCmHVt
1WCla4aAROazAR1vdZ4g
APmqtFT271fqdvEeCSZi
LoiFpmBchfgoSQTBuuON
0oKifiMLE1F016K65a0T
FW9qxZo7K0rB7CEHgHDv
YaMjO3afpUz7dtsQwzdj
58wcNJGA2T2Ycni4L4Qk
InHUy8ZCQ2GHbKAxAqEH
gzXct1lsCowmJ9sB1eEw
oosvbHj8R3MXpvFOYLLB
l3MN4okjZGYbtIXlOx7p
df1V5ifvDlYiX3cjv2oq
4f79jI8q0kGhtRZ3Ljpu
jIImKck8mToD3CYzoqsx
VvjPbF6M7fc9PsH2DsPW
WsqOqHxNLLvhBWz1XbaV
PRst5AXz3HxdTOlNugBr
eSMqIwd31SZuYZKLRCeP
KcAHwiAHi178QeZ1vvRT
jdsDJXpIIQduUWKym09q
8S6B4BC3VwCnB39WMTp5
YbMZxsIOIwycOIAhhK2m
tja7lJGn3mbVhOJjMc1b
hSrfLFZFc0HvTUvlQxOX
ZQjM37fMcQVr6YEZWhhP
ajH8VB2qa1BwbUNYESxr
nNesh3Ty2HRqxzJK2YC0
47UWSQbADqnvgMSPG9DS
9a3RIdkQqrJTxDWTBW5C
Zs4YLFy5SWfPzucIG3pT
JtBaDeeozLakXpg1cs7Z
vcmsvP5U9NcidQYYoxZd
zok7asIPrsum7ndu0zMJ
EX36F38I6955s5bA8MdA
Sm3fRGmkZFQlSLh7Q4Kq
jcYYWyCMKL5XQQ9RXA1r
TAe8mow5smsz0bdncPSE
QO2pvCsJydHg4GYfO9J6
yCZfbHf5aPywLZTgbILC
rToetlmMZRkN44Ja7EY6
VFsFw9ty691uaVBf4tB1
2CmqIV281wbokVYhiE0d
YdeNgFwXs7Nv4mGvHG7M
d5kxTEH0xK7Slo6Kd0UR
5CVfPWzW2G1Q3DIFKRLD
IePmbpd0OKsnSSPHEiY3
a0zP0ux4sPDPGhKG8pEn
CqdGaE4CGbSmupLXgUFC
XhoLNpBHDKDW1pwdxtQD
REJxf7dtx0Vd8PFYRH1q
gxygDEAF5VM5xrxmB9IN
q56t6NeYXwp52iATZv9W
7pYpk3EAaO6tqu681I84
PV4OGokbK8VdKmZCFQjG
pYkXFTMPqV3ow0A6kz4b
cTEliwTzJNzoZuScvfcn
TpAGr6P1Ycsbk6vC1yR8
uBkzJdYLZpXtR0MkYvuL
3PWEBex2tfISFpEw1ckN
o3i6WAzYcct9aNSyAU8f
TCXym7tn2ptfyMppRfk0
1KIFXLaLDhagqISWbPRF
Veckk6ry7C8igcNqzeTL
qVFJWWAMSPecn6Gj3rPT
92NGHE0Q8P5bMbv8yh9q
mJrG166Y76EpnPlDTDWf
954u6RIBpeEfFXktAHWS
Ves97MFIvS8Yjiq1srKc
qXdypsvjVUR6BAdcNP2F
oBAaKxYtIVFbhtQmhPMk
3LXSu73HlAEBPgdTeBa1
nV1Zx5A4A1r3lKSGYezA
QOhsZ8zpbXHEg3fQ1vaU
nu2Cgjo69GPCLtFIbkqY
tcYglskrNzUoCCdqJuGw
lqmOr3Bar6Xx7fx1tdlB
F43nb4Cn4yYqjE4zLKOC
SwVSzHGvr2VvJSv7nkRT
TBFEEAoRsHwmxsy1fouW
fCbVT0uz2oUnjijvtqNU
HxMRxdIoCHHsL75BXDAG
fRD7XnrA7iceqew82vHH
zJFvw6H0tjtw4mmwcoZy
fLSaXL7pQoNuAB0Zd4S5
gQZPDqR9hwUgxHcENxhN
4K4JlqXy2s8q7yffNmqE
NMHTQ0yfhQKZzC06CGwY
0dPkRs9jf6oByKUyOCgZ
KUN1xF5DtkHKy3A3cjpS
dMvkDERIdVvRy9UIVfaS
LGPEIr7TvaOHDseWddxz
itVaxNijZmk4Qxr9vmGp
E2h1B90c3vLdKwPLGxpz
YnVMl6qYezPZdcaLXknl
zGMXorzTGpoUg6DdIx6F
ooEcaC921ZkLLmHwop3c
3c2V4ig9LQI4wBODPACF
zfiQwUFWjux9v3rLWES7
YxLgn3YuLBvPt5U9S24R
6iuWXfXUplr2o4RaZ9eX
AkyRvAyC9j1pgmSmr4hv
8VtYeAdqQUuucpW7LRg9
wZeWPAB4Xcyyd3H9Er0l
caNt5ldDUu1aJFBqwICn
rLeBK0AmMYuhBxEOe2id
oKCI20Ge2azBi3cI5XCO
XJERi20hMn9iJvtx5p4c
2Cz8riDCNtuTKnLVrKiT
5F8sybJDZBatGRqK5OgD
SRLSndBXAYWzXWeS72Xi
1gNurunQP6BWR0ixSKbn
m4HFzgAfwhgZNdUTk3ce
oppxBj3n6nQz6rEWkIBf
r1werpf6HxKgmfT2PpMn
6kpNaSAbLErcrue0yZ8O
zcUScEoid1GXpn2of5A7
u6I3HwE02eSZbLEC8etH
##s
AcAwxdDpJ5mVFxIi0fWU
psuMHP0jpvS5gawzePQC
xNVWidyEKSiXIN4CGfrA
lphVMUwoSnaQ4jzCPLbE
DtOCBQPdc2x2o9Gpa9Ws
FFF5VAsp1ZaFYVr2fL3l
bUTQEUwVHDNYOhVQaFq2
wuTHW8XJqiizBIzctqWv
irZuL5eIBCZezEsNwRfB
8cujH2cliy3l0ZcLJ2mw
UFwDCyVx9ALoOfJg0e7m
uLuDv3XVqBKqyZDzMYV0
UVN6OiAiZG7Ej9ys0kq2
ggdrJe5k0EB4jTovlCLq
DNQhdEg4aVSmGKCe8tha
RL0bbatY1mWDqRbgCLk5
##0
eUr7uuFrCC6j9YG416bP
xIhvRWkJ71luDcqAE624
IsTvM6gt1fo4LjZbmuio
A6UMjKRjJHAqtmC3TWwc
hKjSqQWrgB36TcVgwnCu
5STavGnL24XGYpyDzCPw
exNEEirTAputnUqgI9ZK
EBDCQjPu2ECQ6sgvhPe3
DRSenrreX0vA0N3xVpet
h0PTf1iC5ZjQDrNFdJCp
oxDw9JlDAEzGtYNEpxn8
oy0ihNm85iHnGx3jDzo5
ANeP0KRu5Wbez16kKrSx
Dq9EcipGMOKV6mW77MbM
nA6UskS14bXBEN7frnFP
dS2kXVAeN3IYm1fNxezL
44iTy7mCWyxpq89GgEUy
f1mxhSF6VkKhDT2EUee8
Ekjk4eH2UyIZMFHpOiQP
tlcIPrrQrbMGYo1x6old
cyLkadviDDXPJe1Tvgfs
CjQCIybn9RuFv92uyz1H
VwGBX2L8cxyeGSSLbuzc
M0jQMUjy0vHOPuCLA9wf
ZmfLFTgiG7HKrxS1Tv1s
RHi7dPFu1itZbyYBXLld
z1aQL7uxV1RAqPP0pUWn
dF6ZG1vUbcIQbtJ0JTJn
lbwrjjch8YCRzxQVoRJk
e7U1mUkF6KCdnXwcdnfi
0l5eLhn16ayzLvVOhHTx
n8Dqzc63PgrdMRPh5dM9
KnGnSGjqmiyl7pKGV4HQ
kwO2oa2QvLsjs48f42dA
JeIFqFtLql5WjcUUdye2
1bKB0ffH5N2SEQmHDiqv
71Cwh3GLc01EBOx01CYL
kfzbBc0ybW2JH1jeo6m2
t5QZ6LeRtMvNMxTpTNwY
v5VVdHyPbfjxICCMYasg
MZGJxYxxSk54wPmqqhPq
xL9Ds3Qepyj9rkgys9Z6
MT7g8xbBIdej9wITFdov
LutOYKAWJJJUCOuyhZzC
ZbHBXivC4ZuWw1P2GNmr
9mxWQZH8t4slKzqcOTBm
xHZ9sb72oHRNa5T1Sb9I
KJUTf5Oo57s39WaGgiKf
8mL3Ss7PNIQOEiImpmu1
JnHYLVLmiKN0VyfeBRxP
qVuij1zTvuqYquf3pOKO
KQrMHnQzsQngD3lqTpGo
iyPsvZKG2KmqRvfvfOIZ
1IGT0Fq2D1LdWkHsUeWu
yD85EoNiBV9KXBpfYVd0
B32cXx5H2dcCC0eDcBLe
JNcUoJkOqpH5PgdYwXOX
zbhH12jrBGjcxPNK09zr
8zJTw8q8eqyGvXf6NlDX
vnkEkm2Ba98shK3OyDfX
9EgJbAQyRBsCq8rpiwEH
fNUpfqSfcotfOqvw5xqQ
h3QqIvXedfnVMBW2X9nU
in4kamtwdkmTFqOFnCZ3
EVch6zYo0ZrIDjDApwzJ
cwWRUgnAruqQBsuVKnEU
zmCpTSq64NjT4DzJDrTS
W2QUcbo8DMMzRMfloebh
pNjR3nczf4OIGuRJV1zZ
1fkBrZd5emuBdjriSkw6
iZrKGmWDpJrrIkGLlzfQ
AlUJO1q2wE8dPZ6FHmJZ
##o
QaYZ9wRi0A2bPBmzJxdG
YGOfJK5TywJccj8lpZtA
ayZSdZQYJPpeBONWBrzt
cEf2oDEtJYF6nznlhxS3
uqA5b1lQ0QPNrw0AUbah
##l
DsLL9Ss2UJqcecjJBzrS
##9
yYOTF07MPmxA8goNqUqW
MSnte5s777hm0wMlcyIF
kUHh6qt8J2sUXQDbg2QW
3TeZ7JbjQHrc6Tc3U2n8
o6G1Iv93P2jtq2K1EMI7
vZzXTPURD0qm8m6lF9YI
uXzjTrlkkXNAVtqrYRHN
##a
EkRABJzX4Q3OsbdtD9ct
O4A4hdZg0lG6VTGWwrYV
Se8RX8vSS7XPZ3gk9fP9
cUxFaNKsabeEts9iI7jZ
3xP2r7NFnEk9yUJwnN0E
ngeo7e7YyZjAqK4JljR5
rdoipjweR9cmQKpc84cI
zjOvkhtp3ta4WGobGrpT
##3
XthfSWta5KWBCyEitgmt
xrh6tW2qBp4SvdTQv78q
qaf30UmtmfO0LLXpkVXo
uZd0nkcyfwhPDlG9vwJX
10
cGnlhoWnkEOTVDtaW66l
S7zp5ZPkPyp4XF4KFqnc
SAveByRiTsFNGDVIgxrR
SrV5AF04LfZgO0VEISnA
m79MTZ4ny17k9uuwoSCo
F8Xc30ftz1lBUvouLdLD
AfK2ZPJpnxpBWxszTqTn
OGbP7UikA0YUl6Q0A6BN
VikpdAV11kJNsjislm9z
fRQyxkt91oGZ2GUX1ctp
tOA69BozGzuwZfvqPPpg
Dg9uRuB1bKf9FNsCb3ng
##r
##1
4QQrSf5Rnljz0SJXiNh3
uKICWVE71NngBKZ1IQan
CECp6NVB16B9BQCX8HiT
Mf3cpT78lfCVIk5wVxxa
upkJBBN4ptKFmrmY4jTX
OeKb3jAZeCOU5E3Zkl8H
gNI8SlOiTLhiU11BJvCL
zKTNJa4G9dEVrsjrRvld
kLOakHsYXETz4X4lgNgM
kvhMjNNUwjbuHkVjj91G
##6
THuaNysrgRseMHC0m77r
0uOxI0SM12VarBD1MBmf
Iprqp0oMf1z8jwooFw79
s0MgMg7nl96ftFLdqzwF
Y8ZkUAVjeSvh41PEic8F
gv9A4N0gQvWaeMti8gq8
FkWhsB8Kn8yz86uVpCP6
NdDsuyp3YVyh2ErOwo7h
fzAmiZZW0pekyeyG4I6J
1a1SZNDPzGMMpOKpOiey
YSdPr8tejF1m76MeVSvb
fwOBQmlp07fwbbGvQc8t
bmRQAlw9YTZFBIeVaEfP
s55noI9Xkyejc5jF5fju
x6q5cAQpqafQJEE5jByI
PexLyryl1XthscuakqVm
nAZCKY6cCMOoghFC6iZv
##4
B7z6jIswgBYqMalpqSQ1
MHeKsoWrz1E5kUQqPQsU
diCgYupY0qtUO4Nb9J2P
z9r6t7p9Ho8MCMDMmnb4
Ywep5CryJzDAxqRuU8si
scVYycxM7PNRQ6kTpF6M
5VXWpJnLX5qKkVchEhiG
LFYwByfxzdviURFLSYmM
WTlVdyoygkjvvFRslDxL
hXMJo2yBZG6fRQdWYrtJ
##7
h4QzBs8KptDsS48bxJd5
POB4sRCg6yUE5YRBs9Gz
vQrec7DAwhs83kURa2H2
Ourw2W0GyOydXx6mXlIn
RZ3nhmB50HGZaSR3Jc9t
##e
7W4N7H3XnYIp43llbihG
HS6M1b9lxsDlaZEaOUFt
Wv1N1Dh3CmyGx5zDJAxh
N7oyhFqfZd622INWGpXa
z6ji45trR3TUrNceL2h5
##p
aXeUhZufr1NvWUf7F9YQ
Ff1PHnamKdk36PpIe918
WXUxbvDijGS75tsKDTRq
PuEj9U9iMy5wCsmdEwAw
XSSZvWeMgsHWCiZQx7lt
CFvi7Dp1NBUDiP8j0a6q
ELCuVMkWATgHcoEa3KtM
F8ibzfTKidYsp1SGESj3
ji0xwklryHJSx297aZIH
tyGmQHTkxX91ZSxQcIGo
uvfSOwjKDXQAKJ0ckDWU
Bra2UfPsA2zdbwMbl6E2
CntBjuv5RvBrsLJDV0NK
f7spiyxQd6tiQDVs7brC
##A
##y
HuG0o6o5YWPXcF8c7uxW
FGIiWMC2QnZpjCZ5jaTJ
UMfJzC4oKt3fURmMSFiz
HMEBRguTjUGGn6QJfHcz
##X
DXtOvOYXc9CgD3lapdEE
i5apStDKaiedV4AJsEan
SdywpFM3gBuCnb4p2WsM
ufRrdDaQ2EujebTm5B1v
wj8lDjqpqGIHjKHUoHeQ
E6waYN0kvtbTwKU0mWEr
1dy4Pmx51qGDl9Muu7EP
s7dCqnTd07z44JbYtsGB
wxhuCB9NrGVh9V8Ogwo9
xY4SZLGuCkk7SPtEx2cx
##n
V4a6Zgvj7CJLxDOqmkRE
9CJidUXlLJZlcLpYQrKz
VmzHJ3gRRdCdvGndw5de
##t
785Lv70dlLO86c3wwhbz
J9e0nJ82gQu4dyrPBG0N
NTkKEPncfrqaIwkQjHav
WNl2feQck4pxZPrt6gx9
##j
2MSDIpkXwQ31uVQuLilD
7zXHMZ9aKflULJp6KXrn
PRgPs2NpxULbyf4MN6hI
FvAPnsFgSp7TqMupY0r5
mSS271gh4L7EGtoh8rJl
q8pnetHtl4ocZTHX1B5P
tsFWDaVayrIKknP0Cwlr
AnwbhhOlTpWWC9ncfdsr
jVjD46GTj51Zq5Qqxswk
vBewXIc6RmNaHFKrJyBo
xQ3wXYtZ8npmkiATsppH
##8
M6KsSIVi2YqPgxrgT2SN
xar4Fb3O7CSUpRtWm6eN
A3ojxqE7MeCWZ4LGHy9O
##g
3TD1OQ0uogbqLpI0EjGK
Bok6UYqc9E59WKd7Is6F
DQLErrpRrLuuC2qWHRIG
iBliCoRRODnUSGavaJqT
##q
USGnByHv8D4RWK5OP4i0
XxZJMI2mc6aBwHFiO2Qh
tF70dhG5U5JQLKOmawYm
##m
VxxYSnd3NnwEWNWUpE8j
0N3pRvV1pIs8jT1retYU
KLli4uH9vinyZn59ZTXc
rR9OW4X1tscOpcNgZmjW
##u
zIcbSknGbDZVmqYjXP2N
XsvBzFeHhXcDzFePRdJb
##h
pmbnog1yWWusKoDn4hEL
##5
mM4i8eWhGELqp9DvnwBA
4RHF3uff0AFSKZszvDiP
I1k1pZ7OlzGMoQJg2HZu
##2
2017
2DUI7TtPVjrovJ9AZw4D
KpBVJptrjq0PZakgHiPF
09SG0h1rdBrEeumU231Q
3y7p2FybjLIaRZ5c36ZO
BndAhBHHwVUxRnjqnsJw
EvKrpVUViRlIDNG6UTeE
JahVNwZu2mDRIxJLAUXk
QNW4Nms0CXVNzsPEz0SE
eaq13vzR584g7gRzix3J
xbR2k0BR0qe45R4wFzLI
aaQUhiaav6csphES8QnN
##F
6Wl9MwezmZwAiZpMTOtn
6fBKTWoBJIidVMWIYGWm
OIH9RUn1TFljngHhx9mF
##M
vN6cDdIcLlJJOcawEuXg
wvvRv51QMHDWcNAx8q30
##d
PyGA9Vx4aat8rp2NHATk
aPjIP1dU0qjWGxDslY2Q
##i
NaSHRY8tch1AvAdF486j
UxVX9vROv7kiY81G8TSP
ko7GCAWe3Y00SAQgTYpd
oLZHB4K4V9LYQVo7coTw
6ZyAkayGsLOuf710Fq6Q
GOJdR5oP6lEw9tVbY4Da
HfCdeJHulKscTY0HvAVl
ioOm1rGs8YEpGEVDzDVG
lbdnoeOk0sWJblaXmSi9
mZusHmPNSw6XHBPkn50x
##S
52Xf3p0mirnRxs9fv1Vy
##k
HCPadDN7BhsBTlqgF5vV
hy5s4Cpq2WAl7wtrrT7e
##Y
QFX1Hh6YTRPDsxioOpP6
VBTjUuuOfSKNo7Rs9Tdz
wGPalBbi063DqzITmMJn
8Qzc2DRxKJlgIuajoIgP
BBubGBIPmMJzhb1WwjPb
DlL7h7eEClJkhpYQKDf7
MkOehSJH1rAF0uPs2FRE
zMk6YUJRRB5GfHiIbkFZ
4XF1PjIoGpG9u2d9pY6j
J3lKgIVT4fTFzDGQVcli
Ts8CrVpKBOY6XLZn7VJp
WvJ0Ja1gSCr2azhjuETE
##I
##v
jk488e1TZKlPdaHTy0VB
tjEvGdvUPx8EMOcOuN73
OwL9a9nWDJgD0cOtAdrF
R6DJU7bvunmo2VbSB10Y
EfYLbkSOqCRbgsrhPw9v
PkjNG2o6YJHlCisIMdnT
##U
SKqIs2PcBu92IJXtj4LK
yjiYcahGFp8uofC1nY8e
##P
##D
##H
##Q
##R
10sv63g0H88NbBZo1FMx
K7b6VlyxVWBQnrlfgX2C
ZUMiP3e81qTtDZOLjClF
c4ndtAQY3zF8wpHfjVMO
07ftXKyrIvXQ1PJL2Wyu
SM6NMShVT9vDoqnnqjEt
ZVa6TIyIqhtZkszessVL
q28xZsrP9Y6RMnEjqoaw
##z
L3rTmVnFI8QcPnyI5J3Y
LOSGbzf0jqlAjPiQVVqc
OXXyjPWkoMkWRiV99mmx
YjI35pXvVA8zhcvSo4Zv
ijS3aJv6GAbiIAe2mjqh
uGpuh3xdyMTGXQpaxHUj
mtTUGSaXYYgWdtDLMpBj
##G
6pabTY5CQxQgcdWZidsn
FSyk1Hcdk2hE1t6O2xHl
IcgiYCSQV9WJrI8iCWev
MLhdrQ6luSx5sECyX44t
OlZ9V9GZNROa8oMSdvuB
TffptnTeZwfWoEOeUa5I
WLg0kcYoYclLyaPdpqmy
##w
AX5q9rxxz7HuyW50eCkH
Gubd0L2gDjTKWS91eRHn
PREcMeONP8P59aimSada
n06HjyW4qAZdXD9Uyepy
vtxq17GF0SHZVVKx5UJU
z7Y2ar0fJ1f5XOs41xvD
##T
TmczfV9EEA8OHrLpTcNb
##E
##L
BwYwzf00Ph8v04InpddZ
Lx634BiiWDaqlCuW9aov
##x
7twVIZ49LQPrZI9LHFGq
GeKx8BVbsaDXCP2TDAvW
##C
##K
LRFaKy6yrqUkw2A5sDhv
LmXvbLybpamXu9sPB9pk
MyfSC5SrNLLxpTzelXWZ
RRTexVkZrPSBhGs9tnw8
55J02I4UCE6JraoYfm9I
E6uD1ZVryTLv6wiP6YLl
PYRO4HhmVHvP1yAKDaak
U9sbSrRhH3iNQywURUTH
XUt1PN6EmuF4OONjcHty
rqgB8DuLXgmVQC9so74r
7lJjD5qnXDSfhF38IOf1
K7l7e6iKmDyEfadFWZ1W
uEgBFt0Gu6bf624g9i1T
RKwvl9XNsezYvIdhiCBC
bmngF2vjySbN02i33mYe
lt3GMqfLEHMFIJL2apbp
##c
NB6xfDszKyaDkPSCaBM9
pDAvMreQURWJsyisJNPA
ASzx7jtbpFA7SLuYahvG
lKSmldnpXZg61uC3GNaJ
8ZXC31fYrtoZ1StB5PPl
BPQIWYxzOODHDGj9wrv9
DXMNqUWux71UlnVRNuFc
JjmNuKxaVgIduCa9UYC5
oPO6Rdd4wqj279Ei5Wrd
##N
50k3QmEo0uIefYc6xSkZ
9753WhzlhTKInKZiFvqx
KHqc6JVp5WiL9OUbGuOZ
dQz6a0wo6LJC6aSL05UZ
upkWr47mnlHuAsvd7NxY
##V
FNsiUhtjrX2dQGB9NxfO
VPpJDS72KOwU7UCreXnK
ab5iTQVMXmX9gQz1E2DD
ieJ0wSR0yRdnMTJuhEx1
9dIo1EYzPoQA89X1wwHH
TXmyzMKnsSdLG46cwGMU
U2tqoaGLsYEqStAeISm8
hYmimjXJeYZr2yj4XguJ
z0uQGDEZVN5DMVx8koRu
W7Je0tiW4EuJ3k78W4oB
##Z
3Ps1DXXFYGiB5v5nYhY5
MiOGq0l0QV0nXLJGz3yT
##b
CyKbPfK0VnkaMXxajio9
EibyjMPLiCqzHX0jEWxu
O7zoXB1Pt7RbXR36SMC0
uyQolX4dSJZYTw33FKrd
##O
9h8WKpshOOwNQcXeprMX
CyW430K0iOYb3Gijup4y
HGQwHRy97MVK3KIfehFV
QtjFyKNQByMLDIuDXZti
ZeTUNdgZVlBmKzRAuHTx
PHIKhenFx7RWDin0Zyoz
bXHSp2MwlkfyzTJdw2zv
gAGv6NRDlXoEz0019cEN
kcrOPAOjSBOe1M63GXnv
nGcGBOGcfe8Yw4dDI2Sq
t2YSSXZ5lG6KflbTq74u
tiy0D8hBs4jTBpmjkRxL
36L4BTmqYMyuWay10Nbk
T1Foq7sr4jy2wAXQuJTS
nQrl4xVF5mOy2PoFQbP1
5xA2M6760Bg71F1IdJaY
8wQdpmKxDYKoREHyQYev
F5Z8n6euRXLoh8tmrfJi
KWmwe5oHy1cFpNs2OfIc
c5YO33Tz1cJ5efKHsYbp
uusVnBHlf44eBYgPFOKy
yDyCs6HCUHK0ZLnxMNOZ
WDv5U2pJpyZieUSokrWJ
hugo
idbvB8rBLl9PJuNkHeTU
yWau1WNkALVcCjImTm7D
HtBwZYcj2WxkoXqZw8ia
bMnJev57NkDKSui9VTzP
ek37AyBFxRHP3KUpNsCd
js46o0cmnVU3rbebPmoI
mJXoRPc8BG0aG1tkCjTc
XC48zR4OOxsfMk8w7h6n
d0QuTX8x88rpForH6hoZ
jPCnBFPx6ehoL4B1dRpY
n0o9esDlBJ1eCIfJXyYo
pTqIXndPNDtlqEHhVZ4M
pjXQ1RYvJbULAsTAzw5Z
tWrGAeOsMoNod13mcSRm
##B
01KIis1WBkEDaejcvHkj
NgeNb3lpXTDHX0ecjnQ5
PAD7Svgrg8OE5UU2CIeD
hodbDBa4KNxRBq2kXd1b
ue9fxMAW16rc9cbIKe9e
NCpRtLjMU9opUOfHCLE1
zknZMIWidDAP4MyT6Rnp
8tvKqzRMEUGPAzxvbHzR
pKvzZMsWsMXTYJdnnIaI
20
Sz9luzTCRQXFE3vMFJUo
tgfvBZLQESTuORPu3jWU
uFBnVQrF7tP2a0hCW4As
96SdD9erOlr9SroJSeJw
Ip2ncUWIOWsTf2AwP6WA
TxvQB82X2uDJgkkoq3fN
YZf3xsWcdnelEb1Kr4uQ
aAFa5zDWS7gOYslL8JrZ
qsFzWMUy0HK4Epx4mo0V
ykfZqiWSdxRtfRcqsHXz
IWJ5yclGR4EZiyq884lO
odcBkiUCREsMGSAVlQrM
xlQphIGGTeemnrp0W8af
Lx1NA007zjwhYqTGvarg
QrJ0f32n26ZCSUfpetEz
V3ujEeCr9p2SCX3jZ2nQ
YC0SqKgeAlEm12Dc8EZ0
xAHqUG1vwwgJ7oSmdkG9
##J
0gkJmbzUmUQazQRFp8lO
6rdZYympm1h12EpmprYV
7gx0Ytb2dOLUKYqRdOCY
NmPE0YjX4WdJSXZokk93
WOGwfU2Hgo7eLQas82pF
u6yMxjmVFPPCoPtMcHd5
##W
dJfrSIxSGW7F3ygtn2ZM
15
BbtxYk3o9rGVj6TxoOYs
H3jgUVqkcDroCjc7mdfX
MPcLFb5m4i5CFRQ0LKY2
MemRK1DNfjjaX1PAiZ2r
vPZnY2hSmQ7QG8k3z913
2TEUygxkKkQBsEvJZ05m
CF2ypSAyI6xfQ2rl5nsR
Eh4qXL1zrSV69y1NowCE
GNQASghW5ANkGmZMdK8A
MIKzJyNfEXX9PMbk8JdJ
V7rbro6xUBUWNIzEQOYT
iE2yUdZAoS6rxfo9iMWW
59dR9mXISWz56x4OVjb2
B6Fh0TDfX5P0NYM6ASYL
KRxv7HYV4YrhDEPfJOBL
Lb4BggDL2PRsib6hd9dv
P617yAr6D8uAcVg9Bovq
aapTAnha0ULxQY3IXBdc
bOmUYhYv4N7bQprlBPf9
doWFp9RppHMV3fcdO9zI
XdEA6KSGVhmMcsRNonGo
dsIDwnjfcvo2zdFWu14X
iY8fecuy37ylqn2se6O5
xwNxHs7YDEKwMTtYfSVB
1uJQyinNbCyQXpMQp5LR
CjWb4E5wV8JEiuujVvEV
Ea9EA4uVDsUPC1ZIP7cB
F4kYJ02IzvU4n05Mt7js
N9ywWJUhoQ1h38UuqS2u
NwYdyBcPa05dJeXPyddk
PigGAlAK5puDDmFiiJbw
ZatvWppLEqx4E13I6MoB
h51XbPs4TQ50141FtYvd
BcqqL2eQxqvqrm7i9ZhT
Nh9w4xn7gMHp79QxtwTC
T8vsXWVFgbf0eh31J7g6
YyJD5vvgHh7dVh7e4jn3
jbBegKoT3hBFnXRIgt9A
qu7jYS78hDs78U5sLFBA
2wiw5QYMoivcJLqJFrzV
f6XB4oqvzu3XfaobRZED
yVNuboc658FNYUJLJJmv
yYoFtYlvRfeuzb6FMFyk
2016
EtqNfzYjvuLRvqdPkNip
PpZsszqCONIElgvNIiF0
cCHtJBrswynRRMV5Fb9Y
ectBhB3ka9DeUCfBDrt5
fEGxDqMgZJtJ9NLHfd60
jKKdMrivz49a5IX85xHx
uMulaWlWThTB8BgJOL7a
1IYB7IwFivQl7kOTI7Iq
1mOlOPfECw41CsGuxqaY
4Xa4jJ3uqUreuKHjuhzO
6ZaMSJxc3bBU22SeULTA
SzEkZUPMwtFRew1oU379
ZJiBGWOiDdeKxFK6KXcU
XdLTsWyTiYqi9K4B0tMD
bqDu5xYZEb3S8sEkKxSE
v2YqbPQISntz5TmXa5NP
7rU2FwolP1o47fSETEPR
Jkoy07l8Gqm5IPPw9A21
NOqpfrxdHppMhjZ0ASFd
a5kEqztddZwqzYxuR9X1
l7Yvvyv1HY86JZkrDgoF
nEpZsSFRC3zbFncQgeBt
B2lfoyvM6X0BdX30jXSl
GJ1L73FZRVC83gGGU7B7
SJYaXgxY5Q9IvX3K6dj7
jWshmZ8KsnRJTzB9QL72
o53yUj9lWsBfNFmnRFm7
GAcHU9swXO28XTE77Zho
WF85x76WLvqGZ3UcrEkO
XT1091f8HnO71kY5Dw07
yvRUmtJxPxQuaURpsCn7
8JAgSwDpFL1tBiBApUWn
IlYMwppbMHLHScL3UyN9
SYO517JWQHrkurRae2mw
VCCzQl6LSuNFaUBuXdTZ
ana
hlCibbGDfsJCxpyg7JXV
sCVUSAMhO9KLJL43SbbG
30
7C3HECDV86YcDF7dtCsk
E6xtTfAqfLqKh7g1OQ0H
QKuSt7WxPTIP3dFxjdHE
WbfAlgYYs2tYGdmowDQB
emqVFdecpJdb3hmDPbHN
gkx7vLs69WzncgMeTc9j
oXCK2SbvwjCqN9IGNGro
3LFteAqgCnLpCLFcvljZ
8NDRJQJRqeapTckJJhi4
L3zQZRD3yg8PPHVci7ZS
ThptH6GO34djI76xxiqe
drlBm3xPsEcgesSaEABg
hyHcMHAJAUcQAtrspdoN
y2gOMXiUbjdCIQyRRMmr
6w7SvfODEfiviOSQYqwV
8YR3FVsd2YCLdMkB2Kr3
ICQfHtP9QIzd9n93Qp1H
QUmhS0I4nLXmqv20Ygh6
iMurk0RxIxEv5xWEnBH5
m57i5IGfPJybXrP6qfSD
tmZbWMKK5TKlhyS2zg1U
##f
AvgfBBkwZwcky2p8ofWF
J5CKon8Cnw6D9PyUwMk5
PpGAXM4DL2KAR3IgkW0F
Pvj5w8vp3pan2UepWW0j
al3RDBVabZDwXMc1rdy6
bBodPQu2SnfXG2mSvKY6
fHguFg7VVwi3McIPl20z
k3ZuXfn5sCZJh79Io91m
mpQENOhg7wiwpPGWh8AP
nvqT9yLtL2BuqQJTMYnk
vEvJbUbCGYT9h3IooC4w
1PtPnTsKa39tvnBHqApz
cvIENyjOeI3dpk3ppHnf
puLL8VIVmiHN2U5N8S3U
syzMDb262Mkg310rnAlG
tq2IrNCLQmyG8DjfYaB0
yZSHwCA6PpUrxKTPIE28
CnLZSHV2BA0aoqstTYar
cEaCySdwfr82ngVmjp1M
u3rm7XSbekrwnwb4RPW4
3YwNrUyN5VapQrTNDUQF
6YJtiXNRrYpRbGiWCJAV
T4ee1iFLHb2Om78CqAXN
feCjsOPnYdlvRHUtMxcs
k7aI84S1AAt8KASniVYj
I0wrK7gD1cMiuC7D7pkm
IrPdvrwSAVZXujGDSrO0
W2gMTluw9Rx09wTgzDa9
dGLTIEcRct112DmLkmWH
rUcfKLhC8AJAM4qmerr7
2VDV7g47nJVSfUtI9Biu
3iZMZDM1f8wjzfcRvPRq
XbQoUlmnVtQzvw8hrp9g
cwN81xOyYJdQ0CYB6sh0
i60hDyBroSJV4ahgW32w
s5ewKaxlsDQmggBFOLKX
1wfJl7KPOiTctS70tX5D
2Sc7nlkl6PoTCwWzXWYS
4GFdIbxdrPBGKHELzbSF
Dh8IK9050EPuRRDdPqGD
OzKJWp1my5TuznYhT4K7
Svd4Q2QD1Nyr38jaaiNm
WzU0yhxzyQF2UqagFRDy
YcgIHh6L573DPvXmEFyK
6DhjosZRvJe5p0rcpFMl
JZZt7F0dikt6WPWW4lTS
KZKJek03YbU7NbbtBGD1
18
1mB0DNtyMO5cQdhe58uz
2DIffLS6yMUJlO9eZZ08
9B38bAqfoJyqHy4U1dt5
PuTxg8JFwVYJoe16ytwG
b7aPTpRrNjJie2qfb0mD
zOulcyYXxrPp8wxkm0XT
1H0uGgr6nnTIjRRwbRXh
DB0MAX1NwT9N1MaatUoA
NMOd51jleqggWHuGVabZ
ZcMjbnIlknVP3uTv1Tkf
geYzMqT9yUcTm841cGc8
ptCJZiKriQLlVsjI9L1M
QtDTEHJUhcAJNR6n17eg
RPaN1i3RhvrRF6m0FNjn
bShcqQBdp8Ct29G4IlsV
guG0SYRl343F2o2KVV3V
xep8uwLeG61qZWVY62Ph
3oaVLAJiojlr21XsJefH
AMj4MqPKfEIvAXS0cIIl
EDeDDh3pQYAnqNs9Hw9J
QCAxflSlhEMgARr5vev3
maria
o5KFWQbArotZsCz0gTP4
shGWxQr4LM5Qn19vB21o
7qcxIeuVB8YB2qMMWMqX
COiCIXn2JC7Wx4upquuB
EDsPQMoBfgDGtlZ9ifB8
TuF8rh1U9WQ40MWucwUS
Yl4VZWZop0NQYcIwSJXA
hIJgvr5uEYNlXiGNQROw
vzwF4JkEQ69Pc0Qtzd3D
12
9Csn5EqZsxmuWViJDrsx
9dwBSwch67AR9beFIy8R
H9S4sv8xucNhPEAgBNIV
IMg3piapzuAL9rAxAo8D
ITCV5e5z43y3pDYB38W2
LUKJfHKVlx5wS1QiRIbs
LsIIWRxgc4N356prda7v
jyaKsopemaioHoodpLmD
2udncXHGH0eqSE71cooz
FhlJj1u3Z36KrpILwKq0
JB7AMHc7Q8Dh30rM4sZF
KCKSpf9MPrQDV0RiVhk3
girXnfUwQ2UHU76HaSIF
ix97U3Iq5gd4VmtRZPpT
tuPzDLHtw116wsodsEvp
wpJTqvqBURSHXne38MiT
25
JJFIfJE0rJJ72qqYjx9Z
N3Xy7PMpeHIPHneuSHHT
bjYdohRnlsrqqMye9dKr
ghslHrwzxPZH5G2dpyQZ
jW7EUi1wHQaJextP5pXP
oCvZsKfrPvZkTPh7aFnc
udnr4QHxT2SSFhYnwqFI
v4UYLiPFiJtXXuoMR6g8
vsQKvcxCS83DDvI2znHK
y9qG7gZKKK7fCL8UlCuC
5okxqIU5DcjzoapfKI2r
9dv60PjJJSdGXHcyNshX
BB5eOOOQJNdCkiS7wIWo
Gdk75K7Ap8TkjhDO6CPm
WUzHaxiN4IKBsBFp1HL9
ddTYvE77b8Vbi1UKfqB1
senac
1TB0onVpKYEawyYsMc65
HUzz7qVoAs5EkgZOFM7b
Yi4ztFDlaGnq5GQvYj1O
bDgtohtCEf97ii9IWi5P
cY3qSvPubZhqphQBSa7J
coL3C9BWfvv7CQTJsTxw
g45jN7VPt58M7tYcDiJk
lYvFgEZghIjS4FJcEydH
3D6Eeje7bAoPlxldiD2C
F9kT99skABsCMtAlgzym
PJBq4Kof1VB7p95TACFY
YMQ5IsIf5RYAacb8ZdMO
dieFwWg3owH2b6qfo5YY
kZyXOGyNwfkf5DB40GpD
u72eV5HcUic3KGSQfhe5
##ra
0dFN0mvADWDXVSudzOVV
3KMf9xWIL22qi4utZ344
6zQYj1IGoqmwuWRBUtAE
8KvZNySltgHHdTlcEqUm
8VObmlnNk9DZpSgKklYQ
JLOL1MFbBZeWfXdQvgLi
LcpvRcCzPRRVmLfXhR8P
Nq4bgmxhsnHXNQDKpZll
P8hr0MyRsMWDC9FpeT95
Xb41xpOmkkPftEEV4OeC
jSnM0aHUhIHVSaxArlOY
khmU5L4QTuRjIKwyUCwU
orNUXb74n0SXQ1UtlH7V
uQu6ZBoTuVoSplYK9wxP
xeuTnkDqC1Mx26raEHsR
4SqdhuRLuU27uw0wU9KE
Ke2l17Xo0dv6FLwIyiZO
XUea0VZs3wVMa8COhPVP
dg5GI07aMv5MnPB9HvCm
fadALMjOCQKqwNlAaBez
iufVAVzhQmN8qrZhZvWA
nctsDu118nQLbcbzGSXm
urgRaLu71EddfWWlCgWN
11
5qkljIZmVsjhLLM8sgpr
CzmeYTc2tnDT1u4RtnQD
N49P6NUxOdqm839CBAMR
Rm0sT9QXGzuidIs08do4
XwYUlpyYj7LOcaHoNGaO
gzwTwVEML6nT4iwI5wiR
o9Fn3eCNyZfjzbrU4h4Q
s346XnEkQqVNnAMOTWn3
yYUS6x93KPqQk9JYRncS
zX8LwlntEJzUJUWBuZgZ
3wXnI5aSMgcByWIP2TQW
BH5fmwzgDoRljmVUHwJ6
C69msgNIfxRdOamaC9Ia
EXHXwzFiNTKrXCJOZhnW
Ln2lFmhegAK1rGuF7ln2
QQNd8wOfR6uA7dnOX3nM
dESTIiw0SXO6OLjcfmgy
g37kPjH0RjoT0NlOfrK6
h2sXaqQhiCvMhHeYRkIN
joão
q9QeSqBgjzu27uJ7z40p
6L7WqMDRQ0kvtyizP7kO
GA7IyytkE5Ia21kzJ9ny
O69YGGskYKm1hLvCWUoF
ZueNw2y7WifV40e41BvS
c2zM7d4K3fqmBM1GAly0
duwIIEbmlCUSK44oNN5j
f7NW3601BndHQFGN4BJU
shP1K27707Klvnlaxcnt
t6YnhNnHLLys0Ou0vtSl
u2qgQ2in6O1P933BRjJV
##ia
DyozddK4CRMt37iKKNOg
JSLnKkL8I9LcNJCOP9UK
MGfkLVlWwQ5RPf3SNQF0
NK9oPpAeY0KIV2Jw7ef4
Ql7un7kac4RvKXvI4NBu
U1gjYJBr2WaTLj2A5311
i1QUPRY9sdxVGxcTbwaH
lfkTsS9cxaHkGfDMIO2R
n3Rg5OJWo6dWQNtabgiO
ozJe64VkSW4A60fhQbGO
qRsSvrLN9eNvmB25Hksa
0ematAuyDiXRKZLAvUwT
1bTUC70NYjVZpmIwXWn3
21
50cq4dpVlz7R4SOdVD7u
9G8ViqZciQKtLbPtt9B2
9qsIE3ucCILh0vn68EMu
JZkrepj6Zi415UPCO1Zb
PN90TFlYKRlC72m9xAx7
Q2MAvohp1zG6sb9Quiua
jZ75wWwNH39xnL2afhpj
m8xst3odiRYmfmLm9rhN
ry6yCfRaBEOgROoIZjWn
22
3IOBb777OqzC48KE9XX1
4rdCkAqaNzLGZ0aLxIon
7RTadYRiymDFt7Cfjh0j
7WiI4sM3HKH8EJxFzV1g
Fsm6FjZlYsBRP0rtUvP7
eGYUI0LcF9q7nn2JmOEA
labw5ZXK6bgJleBMIwvv
yAf2KTLmODFVlXanzp6Z
0g1T2aWdtDon9beWKW5J
36Leu36LdPYeKYiJ6qSh
57y4Vxl01b6reFj3ds51
6HgvNo2VtpIi9rPQpNIh
Tn7Ze4qDdyw4e2dm17yL
UvwplzJjZFCaZxQoohPX
WkDZ4oLqjb65OJzb5mZN
hqpuvzEW00v9UUGzuc2W
jLY0zekP3gP2Pwv897zU
ju2uWtBZebPdzF1oX9g0
t0SkL3GA7tDZPHsfO4Xy
tFmtHQhHtxBXdxBsN5hB
xjcqbuuzEwYKwbzVpXIO
y0Gjo2Nlzh6x5F1YluYg
yXoRoG9ECeyI1bhz2gjm
KURK95XR44nzYMmlpndT
M2EoODWoHU0mCKuCxulT
YlUc3JftKXsnnSxQDFY1
fHjE3dJiqLYjX9rcDNJ6
hmeIoLb9GMWeKtR1aZ3r
jDVW0ed354pmxsp50IwQ
nqkhWUdU3fbkCE61139g
2014
ABSIqiVHjvX2awP2jSFR
B7cA7xBfltk8kyw72mPy
Er4dJv1RXgQTGgH1blm7
HSoNgaim7y9PjXEZIh2H
MIH4tGo1Y9Q1yGkYHfAZ
QXyHlTJgn7nA21APiC2b
QnYE6o9z2Hx7NrhHYQCp
ZJE5zGFSUW4G7KR9fnns
xGoz5dzZzp0dOtDfmnO7
14
IbpuqvBlFQYMC75mbeou
RuHHG5ybSCeGA8URXTLu
ZOoJPJsCevGaMaITKhZl
ljgb6RVV7qh3ybTLF0DI
oLkHlUzWnQLjNFCMhjtG
pedro
zVQgoHdxHIlj5G8WgTza
24
7dpLeys3VUevQqubfjiE
ExmMXPRZ6Zpx3EwDOq8L
Lv2RviFqxzxE1ZzLoZ25
RBs01OvbNNACMXOJjWCv
RutcR3aqFN0chnr4cSxE
TVnvIQKTRUE6IGKwvEkb
YVOR69xP3GUtToFDx5Wi
gtvOdGalqdukFzxKEcz4
iZJWeOSn9orFh0M9e6Qz
mEFrKyJ3Z3UlyJAexmJE
qEohkH3eYfxsFfX2Xxh4
qRUEl9PszcXAkoRq5T8F
y2Fi4X2k95ksUaSSROaD
##es
5tyh8jekZTBdJXx43Ee4
7cAF4DN6IVQNPTz3t6bI
8FT9cMeaLm46yMPW1RhL
C2eALodOJrF7RD1hLwYK
K6kn9JwuXiivrHQQSriy
KQKHDq6NVH6ilFxyTcYg
SR1ma2ql7x4lSrpm2eC8
SkaWdgHLpeEpMLyTeIzR
UNTTdPfXmJ6mZKTuNQbF
elqpMInfmg0FVIIIJcNd
iZubnHZqw1hfNlQ9Me33
iiBPNT8DsMXtR9XSYy7M
kxf8nR9kHCNVhCiZan7K
tyUf3hU3eTJPieoEBfkI
vs13GlTywMpnXlSY3d3B
yoeqFFg2DSTDRe0oPYpq
##ta
0x1vJi1QJHI0yKAygxJz
7HudFlhDRRsFzH5ubQA8
FcX89NB60jW2FTXgw3Kb
OZGmH1Rzx6ZghGiT9g5D
PsaDoYymYDv2JZa0W4l6
VJP4k54GFYHkrtCUBA6W
XCm3DDjbPz0MIMjvmzzq
ZVmAQB7TvKIj35AOMBm7
wJqollBfeeKoCxYL34Dj
##do
16
C6jlTSbu1bRGvTAWfHWA
DCdxfv76ZMqLt5kABRlm
WR7o2Gltj4FaZbXhKMWN
YTAj9muVRE9ug8F8Xep3
aT7WVz7gkbR0Shpknytt
jU0wlza4CI47jqg3r8yh
mBw3DUVIHnXfwW5ifzfq
vp2AZq71JqVRVocYPK3K
wehVd1TH3KFLRVQQrmho
xfpqfqZwGM9vyDWQG3mB
yfEhGkJszWhsTkWZHwtt
##to
0LxC069AKzpgnaSDc25n
5v1gCfPZBnCunP5wOJYL
JuavJNUBHOltWBR53wP8
QYjrPr6UsEarl4N3tTIy
RbB2s5CGklMeXYn5WOvm
YGmy7hX6rou6QBkhH7Jj
yxkgKk1ClzYJSkb6EiOK
zTpFY3VJimDI1q1L2hvf
13
23
CALs8bRBCL94sFsbVBux
Di38mjbULE4s2wzcyHRX
GLRZxOzm3pLq4oqd2SyK
IZmaJODK496Ro9BnZFbQ
KqRTSomDgqkCIZ5mSrDB
NihzukIC4PuVHDKZi6H2
O93DWVDE9i3UbHGGelv8
PXrwiSgDlYBjDvrOo1mw
PdvJTRq4cwHvmPMVlp0k
XEhadNvJBg16JKklpuFt
btaMDCblJwDcdtgiiuhX
jwixoC4WQaKsMtjEuNwi
nETDu24CpniUBZoubsPl
nnwYlW9lilqC4LtaBo18
p8GCr7qLxKOklQvpZzZS
rfvnrupvEyitw12QSTt3
whLlMtvWMmQfqy3ldGc0
xg5BFLijQ4Dhe4Bq3ETF
yZZvfB8BKBi0CkLTHGTp
zrccLvSQUkSlSPKK3Ezz
0yPrx5ozBcQebb5EkMdH
7b81stZRbLSwCbvPjGdT
NQMxRaVcFwVGUH5K9b5X
RGt8KtqZpkxVvz5oe3xi
TBNGkiyx6Z0YjV6n5KIa
d1fGzTs3glQJV2AezXUv
d2gp1s8E6KNIVervoGAI
lduKH7wjqRQpan9kMotj
lkIdI1cTcz8JbThIb4qX
lucas
nc3mX35yh9eroOA1U7Z3
ncvi0GN6fW79zh4PB0ad
wSWdGsQQBpknvppsyI1j
zVL3Qkq8pHAVFDLXKKAH
##is
17
2015
69oc0rcvoLmDnDuMEWwS
DpAqYuRvvWKtQ1xsdTNN
DvyyPxHoDe77M1kBVO8Y
EuKASXOrjzFCfPXkVX2t
IF37PLPYUfYIRGYVclr7
IiMPRp4jwtGaIIZjN47M
Nqla6bhm1XJBOg2Nc7R3
WkWHv78MFeMOubpDZXzS
acqpzFRdM6EbcoeAwLsI
hM4wUtRGM6Xn65y840ha
j1Olwxg9Fyv7svrYB3DL
jPy1WmrJpB2I7Be4BYtU
la5XROVAlgkJnvrDg1Vo
pvMCoCC9a3eic2bPajQ1
sPVOkRLaq2yz6WxcZWBO
vOB5jRRSWS3vh6jZaXrS
vX5tHhPpuoFObn0pTIs6
x2DxFqpgKbxrURwajqN4
zNPWU3pHa1cYK9WzAV4V
zR6aAZJ2GdSVHtBSMXzd
##lo
40
4mFVktSkEQHG2IDP7YDs
5URqRwaSRVe5DqpkdZL6
HetCeEI726rz1LPfd4Xz
QP3yzVVGnnzJz2AvwK9p
TOIV4gGhMCraysjjR208
UwA6CytwR2O2VwrWFmdZ
anhgsCfZqoBkmnsldHlQ
evVXfOGxGMbjbV8zF6sM
hKxW4CxD9X5mgERLW2mV
icOYjoEe9nkQKmRAlW2e
kKL9PihurplqHlWay6ui
t0VjtZ8cAUCIYb0Z2UUi
tF8BhKC4PGpeLCmJOusE
1z4bVK5dGVehh4NyzyQb
5kjwbrztzOK2yvkTqbKr
9fGFmV70bZVMq3KHodMD
AkmfQ44tqFr5eluLEHue
K0qaGiKQtj4UBAi021Fe
KkzdwxOQ7dkJHqdHyiY7
XzGw3AqKLYqT17Cu2Bnl
Y9gl7m8nyklSczqvpu6u
ZxSFX04q6CTxNQFwuV32
g99LhW97fuUdJrIPvY48
jdhvx2yWbfCQcdXOZuIE
oDClNUaXeHnWa9va7sfG
oUa88Y4ayUpJa0QEY0ID
wbxhSDSIejCMixU5q4nK
zmD1udOjRLBLGjCnjKfP
3bOQMs7InzjaSWCLSyuD
3pB4TF6G3h9XMVPGvGBp
ERZme01bkra986eGYXIA
MkezOx03YUnSGpFxWyPo
YwuFEuvsKwFMBb20cHqY
hLO3v5X5P0Ll9KwXeYuJ
jaGzZ3SgIiKzVr61yoNM
k6RuLfpN0ib1m6ToeDT6
mAasRQmoTKeHoiKmeRTg
nQNaWNT79saA4U3ph8ma
pRbibpR0Z4eZ9JxqejoT
pdVr8CVwmeobGAppX975
vLwFwLwFYmvrgunyz438
vXCsS09czKVBfDi2PKYm
y6Dwvl8IfV4WzXaPAfcx
zKHjYsFO4p9jk4b348Vx
##co
##da
60PWywOO3rG0UrRyljdX
Hm9WtR8fpJI5YGOtM3OE
MlOwFGOM4vDxu2JpgFUL
PawY2dekBrG0F0TooHzs
RXLaBdts9ApmrCLKn5Z4
l6VhqgDf3EntfyJ6T5eb
lcZCUKY1q2qQeaKR5V7z
mapfre
qB0zJ8kjf1pT95azt1nP
sSNL92zh6y5MQGSH0vDV
xcuxqzsd66o5zvoRxINd
0LcJh7AC72GUsbxHQggM
19
2lWuXg8CXHzEFuALeXKQ
7k8WyWGJFLmnxdiMB96A
8IK7aar1Jwfg9t0ajtuy
92KqsUfzKuhwLwNh9jD8
9c2bVLTZZ83eS3DQ4w9k
A7yRCG6NV5dogt8zCUae
HD3XsSHEu3LyRBhR1LvX
HyG4gDcFMFaKuipeMFMm
PE8o3HX6GsdJ5PRaE5Y3
TuGLvRSPEisR6K8NZvwz
WTHlz4iz6t0JogNIwQet
YTJGBItrRrV2SxXGj9v5
Yk6AGjQItdaIoqrZHWOE
YwCa3TL5QwUrBDeFQTA1
c06iTrIjDHrTIsNWdqMQ
dD2vCdE8IubQvMBOxwwt
ecA6aehbcBW4uhbs1l4s
geP8Q4IgsL4y3LMh7wFT
jFXV7djaUa4X6FAlIVww
sHxrP8PzKuBh2ukwth4R
2xauOvlY7CMRcbsfdn8n
7Veks4dA9UUXAyQrBRmq
90
B86vwHfQ8jvrWU5zxENC
Djw7rSxtvw1jHpLNC7yA
EcOA52L4D9PyH3s6ssR9
GOYj2dNQcfBisnR1jMjA
JMYyOhAsjo6fU8m5TClo
S6QIkNlJ4ZHKVFBoe7x7
TemmK2cXgaM2SfNBEqCl
UGhzeCpDpeMT22baYITn
YSJG1NOEH6pyO68zfVAJ
hSTivyl03T2htmdSE0yb
i6yShlfhw2clJmYcMvfm
iLogMjfBsmBGoEQLA0Th
nAeWlWSw8xMb4qOGlZMt
rafael
s8AxqstGagIqXFCF0tue
vChKfruqTf1EGzMO6MNA
w0vHNeQ8RfoFvtkcmUVo
##de
2013
4olU07oz10CBJBXpXQQO
4vZ6sbkZyySwGqWpG4QY
9GuKoqVbjPSWTnG9PfcT
DfRCpScHzLG7QD1MeFt0
FrRR2rOTmk0AlHcyPKAy
HAqOitDLFwAmZhaxRyV0
LJsynAa6oZ6oGYtYXRID
OakFmMGVRobM17j1yqIi
VfJMGtCpgjP0JDGa8LDo
XQxkIfCjfzoumK6pesdc
artur
bZAKREy66qlrWlKoH1Rs
bruno
frhmqmdyrSe3hoFAnlky
m9WxwxJ2D13qC8PI97jW
nTcP2Q8ltSwJF9yq9lvt
paulo
s8iNIKwwiaOiF1PVLYhH
sJv7pploexXI8FHrKQga
xinbpktqLixZa6eC6tuz
0RGqInzx9O3AbRRw0ubO
5g5Px4psRtPAkobMmu6H
707LlcABQFwqlJZhAzMR
9V8VrEILrFYvaBGCbNuv
D7cxbznkUKuOHL4MFLXn
EtnZjLoT7rm1NTQ5DvdF
Gl27z5VQX5SnSsPAZ8U0
MATP0Q9uCkRyKs17Plbz
RpQ3AwpCA9oc93bVwfwV
YsnzyQaxK9NvfWndC91O
ZmkSsum0Rt2zh3DiJceM
dM42wcERNWewDxQu3ICw
g3XZ5PRXEfvPfQkVKyhE
h2HnrCdTqSZBb6GYOAnM
kGvpNCRlaFMmEmpyqxAG
lJ2uCN8JVpVROOZHSz0p
qMrC3E29O5FoRZoLBTEL
vMpctCRGUq5LPJ40V0FO
0pEUSjetWGv4HN9AkGrA
26
5yy0knMP9UaJGNHiLdrh
85fJfX6vTSnHXtMtkAoD
B6bR1vnGV5e0f0IX02If
C6yPHaapIVfzfMLpD7j7
EGObJSNmEfFEEsU0Z7C3
JdLgq4XQUG4CFiLJsVUg
Jm4Y37C7DSQm3uJU0cGV
KVv5AiRtItGMadPvbqEl
KmUelq5XFHG5ZVyOTQoL
MDcnrR6xB6yc8RK0SJA4
ODuEIuPiv3knKb20XSlV
R4VwTpIXPQgBhEQDZH5t
VWIz2gKGH4BMbSWNQ4aI
XcoArwyF0HwA7to2HYrA
e5sz2rIYwKFL7kzV0BIw
hARxeehFEjce8dqxYXwE
khaSJhowLMA0ndW23PdS
l1ttCSpEPamgxT7Genjk
lQfvuOZa9yUyXDNpQPNW
nEE2ROuAqeA4cBcp7ql3
noa2kTe1L0LVcXf7mcbc
pkG7GX7S94WHmfqYfJ8J
ppkGyu8G9cV5MFj85zyH
sJ1imURZbhcWeujxgR5W
wRm4sfnso4YwB7ZXRv4Z
xVcpaN42jcRjAJZ7mmsU
zeoGIlEPwacVIfq1w4oh
##na
0QkaS8NzAcchJCRmUCef
2vCjQ7OBK6Ge0YCjVgHQ
31
A0UngJnu9vYapQxC5RHk
A3Xfqhjr8ijCKBcbBWQs
BWlz8T2rh1DpBnKZTX07
FvoNIIkRlnNOPyvGl5oM
NaJEMb6pxTTVvzXIZ1am
OfqIKlYLbAjU2bbdP77F
R8BTyQfDbrJvlH5o62Dl
XSajj9aV2RakNfbDeFSf
b7rDOP4XGj7w48n9sbF5
dan
erPpOxGxBS80S2nW65Wj
eueFtAT9okHiKNzsj1Pd
gANzRcizoxHM9E4nEaHi
gAbepfp85TxfMpjlhSIU
kg7JrlqasExJZ2LCFko5
mgMGllnWU4N2jFn8EkVf
rdADYK8i1TldplFg1xC4
tVsPFHPao9esfeUhtiiz
u6db01EfcJc3EenX5gAW
viJkG8inGnhKoXU5pvqD
2018
47j4oYIaBAgjxe8PXD36
9nHY2MTS6IvJzegs1eFv
A0kpT7TbQyxPzVsby065
Amj7cWHBxoNR00DMmtQf
BCTXR3S1SuodqcmPwzOR
ICKn4gG2pzLVFz3bWuiw
PqBtotOdjneZHtwn0ZHb
XMYCwdI7YKqr34hFsR0Z
f8BdHUoPohatPFbArOtl
iSRvysbKTemzOxUSLb1g
iajwMBZwUvTgbLFdlcrt
john
k2mtV3xiQveyPuFA3wPP
larissa
msrSk7lWNnyE8cdrG1UU
p9xC9k585OqBmu3lE087
qiUL4cKuNgadjVLOuTXS
##te
2wvfTxXHlhuc2lD0BEel
50
7Nxzz9nIemQCJ4jywjab
7kMoPO38wQQ4Q03pZIf6
7yyGij47SOCA50q3mlrb
8tsYIZPCwDGeAfhblNQQ
CEsINsdTuVmvLsPT55jS
E8GZ5F3EcqywVV8Nn5R4
EY3hS8lXt9ENSl9wgOEq
GGIJX7cSRq9yBZBGW2C8
GIb58y0s3ZrpqCUuZFwj
Gf5Vs49TbbfbinuXlMqP
J0k4s1qELbFOmWg9vuh1
RE6nasmURIJDbh6ww2ov
RTF36fMRKdIhFG7Hj7k7
TveeriJ9kTaxQQFznX5F
UblkZaB0epjH3QJxyf5C
XbLU9k0STbGMM8hFmZ1Q
d0CTzLPRxlWbJrSQB0xn
fgz68fi8Ie8foTBBHv5B
iFEKZZaCdVgE3qr6C0QR
lfgnDiVzvg0ydx7XbP0q
mNDB48NPEz98dO4I92wn
saFfO1ZehvPZGuHS4ut2
u2Qi8CT6l6bmS4cAFZCF
vYhUzAvpaIafJJhVx6jX
x1WPCL5egHEE04lqUHal
xxK3M3ZApndnKlGexfry
yo6E5DRBP7bqHlF3ptJ3
yqYgY6SNLk6CDAnvw0wK
zQjlWPrjf3i4Z5DbTI7U
##re
100
11FuawmiyFex46B5DRZY
4Q4cJQjIfNSBsnfJrdsJ
8pmkiofDn1xcyV1MjInd
D3baLRopCTBxTJGhRzVG
H1JYqlNi2QXp25WWyO8u
HJzkQWasb7dGOBshfxTK
LLMa66w96q7N2Ne98JDx
Lku0CgUwOUPakMKxR9j8
VfAbbcIPjJJAjVcwAPuj
WdDV9deab7p6lo75w4rt
XLSqmBVO9nyeVW6o3m7e
Y1jSAuFnlwbXNk93gqof
ZVuYtCkGLBVzoWOzwqVp
avqyrliIJW1A3KOwp3qT
camila
carlos
fEjhpbZDb49iVKYsZrbt
ge7gmjS3sOksRF9nmeoF
gk5LW9SJ0g543O51H1ji
iTNWz3LeG5g8UIPLHxfK
johnny
julia
l6A7yweZw90GbvXKjuQm
nuK5oGhNm2IyCNjk8xC0
sHO93EGZkHflUb4HznZ5
z0I7XKhfeGn0LZHXfTyt
zA4ZmjwEiVqgC0tK1wUM
28ZmyKJfaFTVODVfM3jl
2Z2wXFlqSX3OgJSnPpLy
2ydeoNoiwRqUeh7XoqWO
5QuwuqLWOxgDCF0gU2mJ
7vRJ6X6H5C2YRdZ9QOYW
8wwytGIQL0rUTPy4wF4X
C6cE8BdaxOaB0Xcs2VkW
ExEhNhqzxCQNborDgMEc
GP4XaobWHaUZ2QdWN6Cb
HiihlSIQ5eisZQFBjALS
LckKkcbDLypXINbnvgxY
Lz7GIQObvabmznG7x3w6
PA1jAkaU8oVnyFPWTnOX
RhZMbblWI29Sij1Bszh3
SRIJRaUd34Gyd3Jp8v16
TPWrlmM2WB3gBjf9CQqp
cBqysxiDnZdalOiaLSDu
eXkEnckEKx2nIS3WPyzv
gN2Q0mHUh9BgWjTpzm8S
gabriel
iQIRFSr2CPKZAtrD1NMz
londres
mac
rq6R8r3rIUNc8F73o78X
uKQK906pbHCAftogOOMG
yPCa8rkhNtmoFU17BJBq
zmzZp374m49CDTTpOM92
##io
0vZB6hOgJdOVLdfYSiYV
35fO9I56W8HrsBpSaVBW
3B0uMlJsVOoE0fKJIUbX
4LoU3g60YcFn0Fi4Gief
AFrZIa3lbMrUjo5vT2Qo
BGkucXuXxoG4QFYPMMIQ
FSyZqIDiDILEZv7VI83G
I5OJm7RKggJGfYDK0bZ2
KpoDz2ia9hVIm0hdjZyS
LbDIoqILPtpEhzA4VzKJ
OLCLqwyvA6HLl0yMFLRi
PKqhK7iKl8B9OttSQiI2
XtwwWhSQcjbnmz6yqXOz
YmQv8k4mepcHBcdWv6bu
aKc4Pb7Ggb40QphMhK5r
c8tlFe2V1R7QEqGeJnG6
fkTcPe45E8p1fuh4gf5n
iyimKCvp7qmD4Qfe34SI
n4wivAQIwvJ0fPoEMYE9
pIayoFalKMq5kB8D5w47
qY9plReWXxrl7EXb4Sss
rrRKBIaPcyd5AeYdtx21
tito
xUmsTpQnDhbMXNcL3sl5
##va
B7iq2q3PbrjAd68IX2qS
FbMe4AmoSrieUiMFujlL
Gvn0Fd7V6RnJW4UzGMnW
GwsbRrI21xxq1KTsNR4C
ISOEfUCuDewUxg6EqXzH
Ku6RORtR0Uy5nn1wIIgZ
MZhBvmSpWf2nAuBebMyK
NyLPXStkMb8Apsk4im1Y
Oi2n9WfCmw0BV1tPOFOS
TeWrfFN88n5pSPQxZQ0D
TpJdu4LQnvKDNcfcd73e
Uxe6Ym35CHIYG59A0mkU
XA0owniwRozdVQTXE0AH
hjuIXaQUEcqTOT3cSqVg
i73ToAcdm1vNngxDIdfo
jA7zJLr8wpRABePxn1V5
l0oxA0W61uvZnfnlst8v
lSR1dMvioat7DxqvIwg5
mia
tBJW03jaXD5GWsuVd5At
umaEjpttpT26CQuUaGj7
vuFB3jnIGlCHh8ehqDnW
xHGHOSDXjRohjfcyWX7I
y969wABvGKgEl1GIEqZe
##go
##ha
##so
1wmZ6dSanZM9vkglPoIP
5PPCN0FOsoKksXCyKQhd
DcX4PvaF13z7Efnmw9Ps
KLNhxOYULcD4M4O3XzK6
OcSQMmUH0iI6389kbh69
Sz00WivCEf7vJuMuYfnz
YIoIiOW3MnkksDUqykQk
aDxgP4s35KmYE4KH7D0b
mgeGdijzKSUXh6oM8WG1
oG0kjElUNwJzlNP9HQj4
oeeQaf2iMv64vWHP0xgZ
pt9Nq4gApAFyrVXrTjpa
wmhZ19ITzz9NehZSo1AN
##ca
##rio
##ção
2sCRmK0pgVcgcVoYFVyw
6ZrDLRafEm0mkKQgNlw5
7iX1bYRnjnhUNGdqwUiK
D8K9kkLRBJI0PkVezEYL
IMOUVhB7GZpfQUylg7r3
J8YZYbzpKV9qCF2PJ7xV
JmTs0Z9HWHBQzxwIyq9M
M3U7BzsonH9iCFeL4rpZ
OuRerhnZYfLudn92mnLk
TTIZFRiUutuuvLeLYmqm
XRWzfUngYurduRactt47
alias
de8D2ktlgtqtOom2IjGQ
george
gpKHSaGbnUFVH5ArHpJZ
kNX1plOWPQz2FiGB5Sj0
kqSFAlD2ozyzbHpyzJab
lk8LDw2GimwqBH7NEOIP
q0X3Csu1rGKMj6NobM4k
qTmj4lQPH7N81TEDi1Wj
##00
056gOvhtXGcgVDaBos1g
1RFnYwkLBkuvTcb3zbT0
3tbQ8DzS4ZMIekSw3GHe
60
7kGia6eHGCmhtFaqHTz8
A3aTNLWCplRXkaOoHy9M
DIa2Ev3ikk6jkjN1kDk5
EqGd7Xpa0GjjFDTOJsQi
FeMBfhr2fab68eL10ald
G3HcWP92Fb1ZfKw6d6hW
GUG06FDkXUql06AfBfcS
GUPVpaQK3mToPqGK2L4z
HctRlbonuK2DKU9VH5dT
LYBWeIw10GDaRcMV3BfD
Mn0HBj1AiKa4eAAz21JE
Pmd6gw5sNAZj73PtDrcI
T4WtMn5lAqIQSLBPOCVD
ToXa12XFhzLvKG90bFHw
ZjFnQukvD005LTNHMSqf
eQNm2BwJppxU0m1fioKT
gXxZajf99FR3MPCCm3Fy
h1cwUeqYX95WJCpC2wtY
kUGXt1R3gbUb93j788ub
khW3VRIO9UNIOlI5fY2G
lx3kYsZsuJHybFjtixfb
sOCBqPHDqf3RnyQ9M2il
são
t6GYd6YKuLGjRgfkHgow
tvjiRYTYKZ40a58hPlSY
##el
##ne
##ria
##ro
0IkPik42OFHGzpiWLJIe
28
2VfEkCOLjl30ef2pUZYb
6HBJckRAQpq9RUkSmfqF
7gSY1YI7VWye2W4etqM7
8rCuURegfDtG8IPDpXDS
Bl6nyKdlgOsrIzjyUqAn
E86OVjvQHl64xM5pSeo3
KEnlRvWI4VE8UUuIqwSx
LI0N9n2uEK0A0oerMl9I
M9lxRNYbk8e9eXWeCLPt
TCl6oNQoe5JePSZ1IO5x
TLfOEI7vROrRvKIClhlv
Wbkh63f62KQM51fTIbYQ
bBEOI5rDqmF2AYMrBYQj
elizabeth
fernando
iXlJxAWDtzVu86yNRCQZ
k2zQDTjwv3c7IlLyxTVF
marcos
moBp5hL1TgI4jBE9IDZI
tHI0bmvTMrVppkEOfKxj
u2D0jUjWwJO2z562cAMs
ua2DT0fKU4afZsfaUFuR
06EvnyqlNud31vHjAywp
200
3m6BiFt0uHtJlahuhNwD
4P2lXlFjU1OX3GBcg07o
4peYMx6f0pdnnUvmxuVn
5PM2IVqjXuqVWXywARCN
6CpydYCWCUsLywmfHyGP
9K9GotOFqPxjAzPWo1Mq
9XSYBqtuJunu0CrJiwrr
BPJiifbhwvywxm7KQNv5
HVHHYGeXw5MwxQHX62ID
I7hCydxZAaRawH6Fo2Co
JBWkptJQPrxqBFoGBsqt
KLBkiPcl82gmeGMEl8xi
LS9mCQ3PslXlJmpxZ5Fv
LqgBJEiVmBvqrA5QVZ9F
NAHNvp5JZyGlrQzeWXIS
OrBiyInAw9h5IouwNVsR
P2DDIX4n1ED1VWYpy49z
PACVCA897tjLR536KIQ9
SLoWAsZs49VE5umOb2VG
T8DEUDXKnI7ESqzCJ1Ms
UlF9xR29jq3F1Pu0A2Aw
XO4r5AzHVzFrihJFcGzU
YiSdvraH0e4nj478BG3N
aUKZ5xVIjGWSlzuJKHaw
duWgQetQuWrQGISucbRP
fhc
iVrblHIn6R8p8oGarOYv
mffYvC8buSkhASHTsD25
qMKVH5bz2WH6XhJWVCsw
srJSSEMYuY44FnQzagoc
uyXn7z9EoeVIyaIhdR50
wJylL38uNGkNcSbppKKJ
za6QnVLSZMDj5T5c0JHo
##lia
0yG6W4CYTO94pqk3EvlF
1vyh2c094ryNfjPuB63g
2zj6m4LsqW53sraMtld4
3GPYVdrsTVFxzpPPntAD
4VRGtr3I98tIealNAqrg
4XTBunHj4oLlJJ43AbGa
5PnIosHRUyYiiWLfMmcI
7QXnJzeHmDTKc1gQBsTo
A9loxyaG5bUVmYWITsPD
CKK5FJr2bwHTcPL4BYpY
D18qWcwrgIxga0gXAjns
DZuJ0UFKjbNvd2DP8su0
EdaMHaijnxiBkr8FXKCd
FPnMFGSASjad7eYXHuNo
HEAc7NTomr3o7IoPZwPz
HxefesGlX9cbKTvf0GRh
IaxyBuaPZ1os7KipB8vV
KdaAUSgPY38RK4QBTWUI
RciOhNskrfzVjmGa4suu
S2F5goq6kIkz9Zyf09eV
Sj1zAtjxgFTn1LPvTqDc
Vxiehp7lxWYyZK2vrvwJ
Y1D8CglkvvMXKw7DY3LG
Yv9PD8RXOdkuERb0TBKS
ZB36vr1pZpR6vxRbWu2U
acI1RmS2YgbIrLh8Bi3T
eNmsWCzZRTOUoi1Xtc8g
eZr0IQqK4Cx1ho7qjgs5
f4KhOma2HcyMdEdL8s8P
fOPIPJK68Aj1Q1UrJpyk
gdW5jLBEXCxI7McwV0E8
hp3WA8iJRrXgSMcIRqKB
lIFMVjNJiAcDzZu8h7yE
nUX22q8bnUn25pgSRm0K
pi3FAHKMQoKSihhgOglR
rh
rncPqPy6hie04G2Ckygw
roberto
scURKSW32cqHqfB7xUX5
tyMGR4qkuDw2lB8DKrne
uNliq2n3Kbrnoxl81RVJ
ztFpQbvSGYWLug8Mykxy
##vo
##ão
0dEtyS1nMSZq8t3nZavD
27
3ztJGyeuweciLfY73xDq
46fB2Bc3bCeUYRPrChrI
7MNLjbgtcCTvc6NjNrqW
8nWhDiijL9yV4ikjJ5NM
Aa5jlofp5FefV7UIFU72
DQaL53uMr0NpYQDesWJs
IJprQDVgCKYHTbM2Bm5Y
KXt1cSDcb8vVU4AT8J3k
LmcAlepE1VeuE0fXM9w1
OcPK8eUHP5x62q4CqPaU
Q8j5QelPpK0QWeKmYMjT
VXSRAdn79nrDyjzFTIBx
Xw6tTO9a8w64NrWCI8XT
Xyoa6Nitf4scn2WSdxdB
YQ65V7UHD3KkB50iGiVz
YxltZQ8mTR7Ubq1IEquT
b72Ds3RkK7Ed0LHXo39j
ddQMxOdN2sU6LdADtm0d
gdeyEeHO8sYm2yRbsWdG
geNnV8Ix4bQHwDJ4Abjv
hyrQ4wFbwiTxh2Uj8IzK
joey
lhFkfssSOWqXEabSrfBk
lima
luiz
rSa0WfxZEoVtcNV4CCrb
ry1QAMcsPza4j81wmSvn
thiago
txJuWdeaFTMHe6ywpz8i
x5srt4oOeXq6bZ7BGDOy
xZrnOXaJngeoAENz4mIc
ykMDNnPWcic57zhBvDab
ylzEuECtCn2jc0sAFm0T
z10OQYtOoJ2G1LuPhO0t
zN5e2ohKhRmJMCQHtOPR
##sa
1gChKD90DqMXbNhptOfe
25g2s4omfe45QxpCjyER
29
5Xzw74Mahgc4yQzUZ2nM
6I9qfh43nF0a7k7OhDWf
A4yUQH41GuPCr2GxLhXj
C9MtgOVR4cuAlmCu25oP
GxAxiJwkBF7eemNyD7pA
Iao5M0XICH2JshiGiUtY
JSgpMoydeima8RbieO1b
MPMLLpBUZJLt6cE2cCbg
MQd19xdNWykIMzWh8c8v
N9of5Segsqnb0MFeHA21
UXmM376uBHoVWkDieXp6
UzbfjcutFVO4KGkYKE2k
V8vDcOuW0F9LVse7yPFl
XhZdNl2EccqjPIqAyKZU
copa
cwJg6AYC7tjqROFGIdMj
dCWB3VeZrKwCYDtqx2nk
dhoYj5mRNzg0EQv48Y9a
fQ0ThSwq18cLAe4ELlIw
iTTVEDOYi6IMrStjzPIV
jGSdrVi3mD4lMfJkV8WN
jefvbAoqPsy5Ac80ZbNo
josé
kGUIr8XNB7IsyMYwVwuh
marcelo
nfM0t6exbpbse4wuGnXQ
oYR0pmbE0xB5b4ZssmBt
sZqgkNognMeyfJhTDUOH
wqaejIaHYv2iXNkKaLgU
##99
##ce
##im
##os
0HlqEhY5tmVR3JjDET9F
2nbViEeGEyogK5Ykh2nl
35
3w5IZxjl1TM6mkH0rqFA
4NrLczbC2rwLzpprLCmG
8jMzzIXDzaMSWfjMnmaP
A1gSbB6X88JRgXGJRX8J
CeF8Cnx7ew1ScrKCEyjJ
Cmkf3m2VE4ONTrKiqCaN
Dc6fTS1YAZfujAPPPePi
INH5ogjZ0tx4cvIcmfsL
IOfAYHbGqn49T7uqRGoO
KUP3ksT5C3YjJUZcSLTW
Ksr44p5fG4AnTolzzLTL
MKvgnpjrRH8XE4jcdLXB
PInS3ELoQhfcUkjxALuO
TRWbaZy5mRjQXKnKIGm1
X99RYd1m8xLUnDjoeLSr
YC42gHaR4aNFyRE2OfPd
YUCaSaF2HBb1TQgsY2Hj
ZOxAv5z2xFNfs6kCKnUT
ZRi3W2XyPyyTwlb3KS60
aWPiqfdxS0QYbGfiyJtb
b26RUy5wYn2IEAPzci4s
c3KKhDQy1tshuO5xLoAR
cpaZ8jMrfu3ttNkeB7gl
hsaI0oSTRdXjIDO0VavE
jV3Pp3WGedvgpV1aP4Nl
kEosaRZ3U4EPIeeY4mvj
pGHHDgrugEykO8VeecCe
paula
q1vJL1gau3xRAQCbHNDd
s2FGGr3aEFoaLuGXGSoQ
tzTjHTlYV0ZxPmOWMhXD
u3rfNrLsQWWphOLZaHwF
vPFXB5pfViESx1P6KaPh
vYjLXjXcyEmIQeEfdF60
vrCYGWnrqHSzOrMIyPGn
w9NBUT7nDfeI5kQRz80D
wxzHLJhfAYRfaJsZq3xN
zyglclFM4PKNntwPdg30
##al
2VnHuEMp8rfVCJ3rPJqE
4HNwYvPpHZdfjL42X77d
5nJLMAovkRFRAbvwF3YN
6Eq121tmzbA7o959p4ZH
718EdY0NmGCema4Opq3M
8XdUQuzDvaeQ5Da2i7SR
AL1J1IXOMEd5UM8ki5My
EEVAt9tEbiR1pYQ8TS6y
FP1miWtFm58FDKhZbz86
HVFd4Cf5eebPJZdCYEOf
IdtNMoj6fImQc1gr2GUK
JSjWDolFJtKdu7T9bRkL
L7F3zJSugiIxkQwKGYQC
N5VGhOEL2WyLvxAAkBbM
N5dpZuGJQ9eowVF6f7bS
N9vsEx4ul34Ez3nCv2Rs
O55W8oVySXQdWtlnTAAb
PCnMR7zMt1y7yV3rQSJ0
S91wBCdRFlOP6SJpA5J9
XImPjS2DmntGLGZHt68M
art
byL7hUBgl6QSqHO0NpEe
ehcNldf0Jx4B2T8ma4Dt
judas
kUW2lTd6sgRbQ8ONshVx
mariana
michelle
n9x6JX5ijJLmFmcL0Oqv
nbuBFMbumBagpqnWfOUf
oscar
ricardo
sSCZM82ngZarTJKkBsED
silva
wbN3sqOX3efCfPt4w073
##ma
1gdjbMQ02VQfmpJgA8zt
9E1H5ncZZ1Z8oHJ1lNYr
ABMpzQSUVTCoa9wcXkPI
AQYA2jhW2nQYzIvLbZjE
AcmufQvpYL6bLNqPOvdb
AqfGvgzdkEK5EOn4xlu1
BNiXZ65zOq3JsBbbias2
E0xFW7zRXbFoVjIr39Oz
Ex6l0flUSULTpkrNgQIt
G2E4XPX8zwdpkwcpCXDA
GI1xBSPs9fbsof9PfUUg
IKdk2niMC1zOp3HBaQ2g
JNdSA6ExdpiiDal9Hf98
LUmbhuJNtnho3vLMe0dM
Ma4QebZfEqu3KHo4im1A
Mrz4R7wiqRZvUF3SEAT1
N4BoViEpx9Hi7T6PrADS
RxVEjEVju5Df7d8VvSNs
SQ1ei4MnVwM0VjCMi7uO
SwjAIAcmIxPGNqculdHv
UxaqENfXwkRNkqWGJ7zn
VLXUO7q2Y8sTpybaKLsF
Xa0SlkSaCjcE7zVHQMGf
YAtSFk5PXq999dvhkp2a
Z3G2e7HrT7w0g2OAr3Wc
aIS8c6O2bhoAcV2jGt77
adriana
dama
dfLMwc3NKompZTJrRCAG
felipe
fernanda
gC1jHvHpzBBE01YadmS5
gh4m99XULiWFwfdh9RPv
h3D7D54KZvEXKc3M2omJ
hzeEI4eVm1e1Kgb7JLOH
myQSiQ2lgONAQY6O0UWM
nLGFzvHR7IcEOAHiBbGG
oLB6UjjSCEcpwjKwCsv1
tmjUTVyCQEtVCu311ATG
wZwKHrIs3L2uQjRs1mhX
xHx27PA3J8bZ8OWUpb4C
##po
1JN1DXBVMIwjWqon6l1c
4N0Aw8vJfL3GVPwPYVvE
69cncdJWQmPsgnv5NJjc
8f1jZB0rn37UZLnBiujY
8syetgrig4ip3BRk5VmL
D69cRbFSmQ5STacI2kBg
Fzfql5sygJtuyssQOh54
I7giqML02XmHo0Wf78Ce
JloqhKCWVxFBIhLaRkiU
NFRkSz2d9N3U5YfPVWNn
NXQZs9OM4wUqImqojeIX
O3QxgQlWVoHhiNbysLQ7
OAOKUj4jCtxVkpffQD2b
OwhQLoaaT5aEJKDe2DcS
TMEGefSDn53pqI6sSWc7
V20xcU9Khtey6EdonKaS
aline
axMOcq3hEdXzhOOTs8C7
cVeR3l7v0jXEcfbhWlO4
colo
dPzQ6tPbjH69yFCxl1z9
fbjVniMNCftA6Nhwt9N9
gHahMkU33SPnWsrRcy9B
j3ggJPjHyAlSo8zKv7M6
jFS7FHL7wKM4EcK93Yti
jhY1y15r49jvj0hK8Ur5
jyGCCg7tV0kPDaXXZ8BX
lcHPm28dQ8OG11Jcxo0f
pcfCZ8X62WXwi1i4OgYG
qNLdX5EZsIkWKkrqJDpF
qReXZKGYfdB5HYMyVmjz
rtSxRQ8aeluzYlFRIxsC
uTEDoc6aWdmw4T7E2pzI
ubseXMOG0s6MdrcCUwdl
vV9YCKQWH3kaWuZ0LmbK
vvo81FS42mKHKThpVMFB
wwme0hN54P3JMUaf10oA
xKtgQ5MVixNyT4a3vuWp
y12J1HdOlQt8ursWiPhA
y6zQf8jpSgNVkulHxc2E
##27
##ar
##cia
##ina
0jOKMhi46fPWPnpn51Ju
4vVeiS5yRWg8L5QE4L25
6Ql8q0Dsq8Jmm0gsJSM1
6eIovoogsqb1VlT8kbkG
7jS7VJIGpstPP0jlHM2q
9lGPjbPY8yzkRK8ngy64
F6fvJPFMo6PIgg3wTw5W
FpMcujqrXUCUYYCAtR8v
I6tU5yCtsQPNRlUeuusW
IJVxjQUv2A5eJ3arqj99
KyLmo2WmmLYdXa72l5Ma
MMLhpVAu42QcC2YKtzkR
PZXJWRVJhCKwMSIbkUWa
PqDgPwwDFLrVG0wMZS7O
UwqCXLpwvegiKKvf9Fip
VQxLQXURkpJisQ5I3lFv
VstWVC0Afe4N9FxF6NLJ
WYW3EjMW1jhUlgZeC4nX
WwHasiQpESlWeBw443Sd
arthur
bKC2yh9h5AP7gpa7xcBM
cKRR1C3spI0z1Yl23joO
dWKd9YeJ4eZQ5ZfQFnFu
drPorGdaBAKRmIOPkDk4
fr8q0pc6oAlQNzU28kbM
g1TwoDhdnmAuEbQgsTR6
g3rBTn8DmDInkabNC6ma
guilherme
i8pRxS0Wi6ndCZiKeafu
jFC35zYpPGC1dsiBrpsv
lula
marco
oNAsZkuY3nRLS5xydNPW
q6QMB8Kp79hErudOGiNh
qhyezR7zACklgK700p6a
rtH2zrLuzHNh9uKynj1h
tom
vjXBFLj0GwS68Qu722gA
xySQ11FhSFQ8UDxjyqQl
yUpJdr161s5aU2YX2HDy
zllqlXGvOsGjsep7RtBu
##43
##er
##ho
##ira
##le
##mo
0hCLKr5UVdPCipybdq6h
1MKtzPU2yrhFfUsylitm
3j98a4X4ebiQGvgvlCxb
4P38BvnXgXkjScuxuXUF
70
7KZtX1RpEes5CWU4FKt6
8sNKqN1lvPBqqefQUqpp
BaBABkl7Jl0kFNFklTAQ
C6rn2yMDDXIBn3H8SVGF
CHzXUJCNrlKmCezpO3Mh
CgV96WFF9wc7qBLCy667
EwypecdINg6CdvMkcxrY
GwXBFH1SrP0eZ1Fcj6WO
ITQXrl7pBQse6NeMoNYS
Iv4bczhCOPmsYHKT2usL
JEVYLr05GgTu4mksZKMJ
JpgFsTMtyKotnunLkQth
KaJCI8ny6b5JWxSGKEqE
L2aAfMeE3WD7RRyeNdE8
LRdXiGcaGMNsjhMs2RCn
LwAueBR2cmXaqmSzHt84
OXx4x2A5nGNzHOu4Hwr7
OwhxFdWDqcvNj2nramgK
Qo193kiIAeo8Y2WnME9i
R1A9suzSxGqOx3yNZ9m6
RFNaBzRZtFzYkFL9c6kn
UNxqdj2scwGr1Xlx3xDY
Y8cgjf8eGpb4mYdUKoyH
YygX6PjugclXBUPRn4z0
dora
fred
gUYBLaIuUC97qzJtUe2H
henrique
jEtNhM56cPaAEqv5s0jP
joao
kqtDMrFDWUw1apeOcBCF
l7eK6x3ciwxzvjeqGKL4
luiza
nhKdFKHwEOdgTKcoln19
nyA751EX06zQlHwMPBma
oPXcm1GHYlPT70pDCFlC
ps9xNFVCWLy3FWcGYEEs
qWWjJ5XBSOfgalIfEmNe
qwjNjRjYBiu9ZRqsnAjy
skwS3cE0fouv9846rIAH
thf4b3FmchukPLptXe4e
vMVyH9bJkJrJoA36gmm4
wBNlImjbhoNMzT8XzJ0Q
wM6LLptRNqSACqvnLIrr
xSI6hLRczJaRfmrw1Kgm
xpK04ZEtErRUi7OiTSzw
##50
##eo
##nte
##é
0LDI7Ww1mDcmFeE4TScl
32
3bSDsiGuBQtm0w5VDDDc
43i4wMYP9olF0Y7Dc8Jd
5eFcLYzyjVhIHC6VIr2z
5zROhFRUPkB6WA8IL2oT
6XyWPcUtJJ2HLzwoWO1Y
80
8XRT3oYBQSo4mbVd3s05
8nROc1AuzRFbAset7g33
Cl9wy3yRHv8E3ozyZRDW
D3NZD3JfQlgUpBeAe67g
DNwm4HaMRQiUh0Kn030O
DfXYAoSc7SuSkc0VypsX
FIYCtMIMIajT5M9g1yts
FcF3Qu7CATSZeuBR1VsZ
HAntrbFqsgGlLiGjUudR
HfAcjL7Ivoxo1jcxlby9
IfFWvR5jWIeAolhCagwP
JiOnSWdU3y76FXmahSWh
L9WyqWiG5pX8lGNicrP3
LZgyBgqTMMDcDgStIqOa
LuAAeZXTilHaEtLeqHGN
Ofz7hylgxevu5NTOngpW
OvCTMxuljGqm9irPummI
PPoeHiEw5lR4kxp0TFkC
QemUzGQHydWGKtFaNHcg
S0iaYTy9lCZPLETN039V
TdnsSgbK2cmobuGXAUAL
Tqp9Oh53vA0Ly2fDIfen
TuJNuaFleFld3IQeOZYB
X7burtTnVmQM08xwSMpD
XJ9SfEmmXtBHnHVmeGBM
antonio
bVm5bFmxpsjtmbLz4n7u
cZ28H8z6bDz2QP2tzNhJ
cicero
clvuMBjl0l3xQE7yoODE
digital
ed
f7hLBDAmxnwi5kawXsB5
fi11JXsyqC9PmfrPExe6
folha
rF5KwhuXXqUJAZk7krUd
sqBOUxZyNsunXvQdajmW
tix2Fq9nx1kDKgo5OhVw
xyM6D7hnTOyC0YIwE3e2
y1HPjJUad05XLgcObm8B
zpXkwNOzPkkIzP3hKH51
##S8
##VJ
##ner
##ti
0MO2RPrOvlga1O0onbKm
0OfpgjWfDkvWKSahdTDg
1W1YTJLtVV4FFJ8lZYv3
3AtZ4vP3DCw3T9ArBacR
45
5GRwpO6P3NBwjyzJEVMj
5Hfw9HWP7lgMVi4lsy1j
5iM0CeRpX0CIoJcKNrvW
6ZafmoRqR2beE8wzr0KC
8vUbElgEiL9oylJ9VflF
99N88qsKdIT2g4JWxgFW
Aw4oxnLjSUgDqOodWSjA
FR1Ri7Zk7czoeEomDB5K
GXX5QwAC9qmShimgRydI
JKdcJhR1d0rXqbujZLDA
JUjXb8e3GZLeQsXP2AEC
JfB0Iqh76L3WwQpSRXpv
K43zqHEMtmlJacR0EE27
MWvJzqCYQKc8bKmxEabU
Mprc9wJonHWBnR6cb2Z6
Q93I8VHUzrfPbslpsdAm
QnY1MhjVnJOObTh0mqAI
TlsuTzZvytpE44Vrehlb
W0CVKXEcCHTZ9ir6fq9K
WKRq6sbylpaNWcWR4SMK
YeWOWo9TnMy1Cn7sM2SN
Yo8dnVZgvOcLcDSOOxir
ZVyKRHcJdZrMLjTxYH33
ZeqJYu5sE4eEY9MTJqer
alice
awjWbyM7VuZjkDxTDyhv
brbzdrql0IawXD7DuIzU
cia
dPG1thb3ZlXAFLvSFibW
e7nUfC6RTnXH68utXBig
eEHK0uzq38JCpKUXtPjw
fatal
fv0QhH24JYWwJDV1dTHK
i8HlxXwivX7O4OQPZJCb
irtZdnXzB4nsGqclnTGX
item
jJA325rMQePgxgUrKJMu
kmi0zvIgay6kOJ9v6s25
l7GIg6CyNA8wvDHRLcqQ
lfIeB4FUVW7gqgJlXxO2
lp1HZWySC0gizxpd7VHB
mama
pN4n2dQivm7TVnrVrjgz
so9HgUmWNhZyiPGXinyV
t6coEwmWikiiJ5OVXdLB
tUCEXcjRKdjfrGUddR3e
v6dA6vCBtIH5BhKyIB4K
wTss0Pu613JYo1bCakAR
wo78bUUv6fkteDVMoJlY
x4vABx46RSefNCFq8x0d
xY7f6cQkUgjvlqIeppZ8
y5YyZ77keHH3NhLXvsDg
##10
##8V
##96
##MG
##ao
##ico
##vel
0Dm4uQmZXCDXKKoi9RS6
0QXLQCz7B4osgguAQkby
0yFqiVjuUOoaKH36m9ls
2unMfmxWooyQJIFc8e9Z
37
47
5CEZAikUuHgmBYrms2e6
6LLWgWwMJhEaAHTFeq09
8vWKqXAoSSyhSRikMOX2
8wwkr9UA6PGl7UGtJRx5
92FoHk49jmWqd7fn5dVy
9ST2b4ZZtoaYqREnzg1t
DnXHonbPZrkmYyMwS6fU
E6F676HGGr6Lq21sX8IR
EXY3Wb2kcerEdWQT8qRf
JzypnL9WfZS3JyXZ7jOV
K7unTxI5UaX5Lowqqza1
L8C81okcRFDsjyWoBtlc
MOjPIgGL5BN66gwbnG7E
NtoYjIwQ4Ly8dVgCyX5P
QGBHBINzozfjj4Ffh2Nc
QnCDHgLFCGxDh153zIgg
RfCerwlFqkuSnwpuPxog
Uk3KSUpvszUMgzLcNCcF
UxXwqGWzuXHPfVUWonrw
V0xdxlRwtFneGFadp1Tf
V37rHMEr0Hxnx3kTCrZ2
WkeEewW0yI1ZPHUTXPhl
aYSvYB5X0oOI7y3MnLdc
bUAh3xmp1hfCxLtXscgB
cQIC1Ht9KcSSUfjE1bX7
clR7OzfRHArKDPNNYQHQ
davi
duoGUpcOPtvfFw8z3fYx
fUDI4tV58qNmO21EeTFM
j8l9lmQXqA1p2rnSmcBP
jorge
l7L6b8PO09HAlpz2ZMQ3
leonardo
mCuqrmwzKWDEabbkuVJc
mExVDplfXiESLwTmkLmu
pDcogtzyoBXaMI20iI8c
pt
qRVM5KI6WWQh7VlYOH2n
s94kyqI9FJaNoiN4nnRh
slXQcyiCIea56ysKrwn8
tCpnzBFUK7lSbtS8AJrX
wgWrWzds8y8r8NsQBXpK
wqaZi0U3NYuY109UGO1I
xbtC88niTRUTOmlPJ6tS
zC8Z1pt7I4VEMkBcOIzg
zf7wrS6id02MnkvgrXQr
zfeE239g80Buuq5Wdm4D
##12
##2G
##4n
##87
##90
##94
##De
##an
##gio
##kO
##me
##uu
##ves
0vxm7HHN9LV7Swl9Kem0
2012
300
38
500
7PN733kxQAibZUdYXejn
9s5j32CoNTzoaY9FgHFE
AnPACsPHopa7wIuKBUgq
BuTxOsvJiiTv8TkfV91X
BwJVrX4MSneLrYTbhn3g
CIc212suQl6HkeoPGwcW
D0nhibSlL7wlRo6fb41T
D2yBE5vXQDL1rHruHWQX
ENzShDOR00pXJYBSnulc
Eq0vNG6iUXE9NVP3BwbU
FVnSRIPVFDEpgfxCCoQS
Gy1kxKlbmFK1J8E4JtQN
LrLdTLBBWzvN96dYJbN6
Nae48CRVU4IrjURvPLHX
P03l4xSdrOH7ZHXzFeb6
PEg9V7SBXPYL1RGADJpQ
PG685Zlzj4UdxGDGEeYN
PyFASykO7kjjHuPuuW95
Sbbv34n6a59rJxca1iKS
UcHC2KcRk0krWbSmiRFL
VH3k2ErRvuEmlCgnMSM6
VnZPUWa6AZteGJP8BLBn
WD7v2zwzxYGusmWuYJG4
WN5rKT9xuR3FEqNMbMH8
ZhcgVtLJZc4dEXVn31xv
bb
c58pFNiZPwUvaEe5qrGS
cXBBoRD18vqs7AYJeAyd
ei6oE8oKfQhkPKMfI0IT
fqKcDOhvSuA8syciThGV
gwDJsIv0NSKFIOLUX93r
hWHBuVO1vbuywIWOQRwN
iel0DzQRrLTtvgoSUz7W
kqPGOxXUN25TAVcP3Ryk
licenciatura
loveDj1BaetkxK172Hl2
owyWTSS8GqCxbKD0pcdT
oxJBmpm0pXJpB4AFwkUG
qOEozDUheXaKwLKpq3Yd
rEu55IlmhWKOWDMdLTjs
ronaldo
santa
uGxFXzBGuaQEy6NUxi8p
vhFPB2JBqm09g4pS1XkJ
yi54HPgnmXpQQ8E6S5aC
yycVcY2bBMYKYYPnPZAB
zyFG7i5ej7OqAiVwPUNe
##2W
##34
##38
##45
##BL
##CC
##LV
##Mi
##RQ
##ga
##inho
##la
##lio
##oG
##pa
##us
33
3buU1kDzWjZU1Fx8A7RH
4geLYxXtQYw6hRJIYp7s
5A3B3m80zp82uI5PfaLM
5T5cmOwTohsoxkqDj9FB
71SIfDLIGH0r2AVe9qTB
7HJ0186vttXiZSoP0jt3
7kV9kjbsOx9CMoj0UC71
8RaxK82SZd6sTHx88Qd9
99
A7kSLe5xltxIoamRHeZj
AhIPOPIeiXcM0DdAnwKi
BG2TzXOysXanMrq1YaId
BHBqo9VAaF8Sl1FD2AeS
C5TKSYRDKuLET2Vfi2M5
CcNZIYxSo6LFocjQQHcJ
DY5TpewV5XdF03gCqHoP
Dqu7xYRQ6NfNMrvBHyMn
E7Xbi8aK6s8JZyOHgKRe
EbhuIRDZ95g62vwd7dB8
F1lOyDpXCngX8v3RVRXs
F1whY7FQagc3PbkzcCQh
H5e65htaW9msaAkXk8GY
H6IhRiusJrzla7DerpSb
IRoLi65xJoy9FTeTFfHF
IiTNBM4JUk1lCeyAH9Lr
J1gWnDk3L3QlRlDOiZNk
J8Z3OZFsOUcN7yzZ6UXP
L9qEyD2lU5fekoy0wJMZ
LlkKkJBgyTOt0dNEzk7U
Lly6SsALdgZ222voqbX0
MZqVJkTqFHjYk7Vaf0zQ
Mbx2dyaHwoRnoqE5gIgi
ROaThVcfhN44G2FuSfkr
Rbv30EGsNcVRE3BYH2Fd
SJJcYF9wIxpc5ESoJg8D
SyDnb2O9uUPB8HXa7BgB
Ugj3aSZe27kQWFKaVvUN
V9ES6lrvg1Ffb5jJDGXu
VN9Vk5ofJcbzKERXMBxz
VRPjn8eJmLFLtSYYKbWw
WKHD46kpvF0Qkgl1lwOy
WhyT0LAgWKwDoTzWvvZq
XGE7t8q99NEJYKybhH87
Y34l6PfXSf4UttZRi4eg
YXtLai20pySf84lz5g8n
YnBsxfYibs8Hn8EeW9Yt
ZcPzAZgiO8X2X2iDcqst
b53QgB4CSO65bCptzMOL
bia
c4KNKuyA4rsaoFoSU7ZB
chagas
dVkz63uGCCieAj1FYVdv
dra
dsNipew8780ByZqeRBSg
ejbWhAqYncm6kduJEEUv
elwykJAgjTV5nX3yftxn
fX7AeJqRIGdOHEGbMXUn
flnud9d1cg64TdTed2Am
francisco
g1kIOAGT8UKMlUEc4sUC
gSP16fJqAguSsqUvnzdx
gZJ5HyydH7FPnkaNpeCs
izG7BREb4mAkc752mC2w
jWd9lkcfzwDPssA0kBZv
jennifer
júlia
kegQhXMFl9HNihawFxA9
l6gWNd5VIQNj3QQrZgUL
lBxLoRml6dT1PTyjWEXG
leticia
luana
luis
michael
nnoBVwSaOMuhAZGSHLcM
nvv5L5SKM2U4aWNn9SFZ
qkOUQbDtdtFiCGSkQvBs
quTQfYOhkoTikIHuIrqi
r7v5oXmANGaWBgLhgRPM
rnlKLDdJVAAYNBsxn0c8
serra
uOSvoYcVeLehVUmUY9RZ
vFnq4EZ0BGZydoiwmZTy
wJHz5lYdZrEUEzuSfmLc
wvB6c4cTRAOYVwQYXss0
ww23lcditz7GOUs1Elwe
xIR51hk92zxge4CAT9TX
xZNJlcnHFcWHB2etCuCm
ypPXED2TAuzn5jl3QtPB
##1P
##20
##5k
##80
##JZ
##Uk
##be
##ck
##dia
##hZ
##il
##l9
##no
##res
##ó
06TrUny8uEzUqMdeYazI
0TfVsW5UA38v3GG1pBbg
1cDOCU0UU1hp6bMbEQx0
2010
2amZX0tEGZx0b87YB8nb
3t862mdLJNr3KZZbzPrd
4MvA2WkGPjetZhCAluxA
4hdzbjgrwdtMoPjwq3pz
4uTL1Fcjxmx5B0okOfBs
53HKKVW5dcbUHjzH296W
5b6DsswpeZYOTzWNqZVp
8k6PI1f0WI14cUvi9RZG
9tN7sqA092lWTIlMdRTt
Ams9lFHOZ9vbjrBMmNkT
B58hbed6Xh22mrHIwASX
Cbvx87m2cTbOou0w2MJR
Ch3H0GdcldtUfWHcKR67
EJAby7WA1Ma3fiNSEsyH
H3kRe7wzQfEJ0ZMf3QQX
HOqTh1faz12wRzVaanWB
IugjWp6QHwnMyY5tHdxt
J1i9uy7c29xZS4z7HMOm
JZXWbRlEhl8cznRpSOFV
MJPpiMJV9JBdS3eXXzdb
MSduvJC0pOCB6ngIjx9m
MxVx32YKGuHwhszDxuoG
N6IT2HLZ8Bq9OSI8mGWs
OKy14C7h8xjFjrU1NLLl
OOqKC4AjWgNV0p6MKDeD
SwtkLJCQAty1YiH42yYE
UDhxuCmoFY6wShF3ImRt
UkBYH629ayvC68FXCiDe
VfCHnHwjywQbGUJdspS3
WyvFsG7CMN998Q5lD60H
Xy9KuAAh5ZZIfA6m5cRA
Z0cmwMZnmALXloJ3ZEVV
ZyvF5AFYdOFV0t1ym4hW
barra
cAjgBoAKAW84WgUTx1iw
carvalho
celia
diego
eGnxOjBpAQnuihJmbwBG
eRjegzIzj0xB6yILdf2E
fyyByIPsbfRLcOdCDXV5
gJs2XPACc0vEh7B0Y7SR
ghteDsxz4HZDp6iyPR3A
hsxVVCYNI3mvlGc8IfiZ
isis
jjBK0VDljWrfSOnDisi6
junior
jéssica
kVEVee1vl78qK2xrdluv
l4bxP4jCYHSwQK2Y8npn
l8wx8eCBgA8op7aX6aTd
lEyYFsC3lakScLZFjgbp
lXqxWB6wOQAL1E6jWvXc
leandro
marcia
nPaIzL3O5pe0z9TFFCKP
qtfaBaoIFOPvnejhb6Pn
regime
rio
s1wHg2KrKx5s0jcSZ4RP
tm39t0ZVLxqtpfRqNVPH
vIDrwMoy8WcPXKs3hO0D
y1oyB1uNtiiPNgm7Jpjw
ySGrhsuNmQvmCCA6dhTh
zC4jyIpalTAEdXRlg0aT
##15
##16
##17
##40
##58
##6y
##AJ
##I9
##K1
##Qr
##Se
##cA
##cio
##ei
##ento
##fl
##hA
##inha
##ml
##nC
##ni
##nia
##ob
##ricio
##son
##tx
##ue
##zf
##zx
0y0POJl76H1iZlfXqET2
150
15WMPaUn097DBxcSLJqC
2UbIZRvlLq7rGKjbo6Pg
447HTkKhL6i6y77ZFLNV
55
6jdqH7fqklr7CZbCeYoK
7gTrTRBUScCUKJmogpWx
9QwemNi2BxTMybIHOZfi
9eF3OfTgFwC9Y3shl8C0
Ap4PARfGdDxX5BSJX5aE
CNLKzxRUwMXZYXjyB8qJ
E9FyJsLcdR7fBsIbQIky
G2dkzikCm0wBlKvZZFxW
GwEgQ5TCfCid5RNze930
HLKSkggDVGnmKkm0JmMs
HUnhNsonuWXIWSY7DzPY
IJ9HqUcMN7rbu5cHtwUQ
IwYT7qUYEksbRnjMa9vk
JTFytsYfHBeAbvPkPa0O
JcXeEPlEJoOOGy0pl39P
Jg2hYDnc9kaXIHqIoi8Z
Jox2kOR2Vu5nr6qz0JZz
KLAIPtZ41ziWNL3pofVn
MgNtvpU06naB9a4pc4OG
MtnoCrb6OPFEwZBYxsVv
MunfZdMxc7CVzUr6RA1S
OOorBT7kAaygWHq1zpHh
OoiyZLP3kETg7kgZtyOq
PikZp50eOaBGc8mjJAc9
QCKVEBf2h9r24qinidHF
QN4diMfTxk3US1fW9jyb
QVbq2VfJjAaYIt0HsZi1
Qpp7fXpMl0lRHaRjcoq3
RTZqgV4vwL6hBzazZa9H
SjXw6UCbpzPqwe2NauAp
TfsKe05LwKkIspIazMlp
V0KVpKjPbFB9EnY8gP9r
V1p0zO49C6qU02xNgbvV
VKR077oVtYHKWSCpQcuO
VhwHbdTJbaFWEZDDL8tr
VoITj2dDXwRxylJnxTvy
W16JMPtqyqgGJLldJhXj
WhSNjx6QoW4yAs4bamJU
XF3JSCvpAODIUjm7AMS9
XjOPeHj33X1gnE12fWdJ
YRAwxlwmXqtYApHluIRp
YW7E8OPg6TJh9fEm5DQf
YhfEKTGoCARrwUTBUUUA
alexandre
alfredo
angela
b85Ej5OtfUbq4OBgsS9b
bQf1hPv6zpKxTleHXyUc
coro
dvC7L80UfwsANqBVBY2D
e6dmGydW8u7EZfL27le9
f4v5Yov3RE35rATPsMyb
goEnF8M8nppwCGGUqUTI
jcTGCsO7sXjjV7CaOkZ6
k7gGOiPNPvah4lkGYekv
l8puK4r3P9qK85juGQI2
lNrHX06YRdPTjKL5DEzG
ljQa9g6t1HhBpEopIZHS
monica
nlwUiK2lJKaN6WvKqeJH
porto
qT2nik530DVphVtogDMD
qkUJ3dR5PP2Pkr41zyfZ
rkOVSf0Woal1kKlK8fhB
rslc63aWiUzrkmObgEJz
sao
tL2P8Yip9JuvEG4NWKph
tb9fZHdIyDL35Px5KFbX
ucDKDYxsQvoP2fQQA224
vOVs2mEF5ntiCsSljltr
vZo13K0mQZf4wHdua17t
yDpUszK70dCm9YnND5IF
yQ9mpqR91NkADoJlaGR4
yRSeE6Kmm2PstCBEvg5e
yddhx4hy9Ohxt2w6tzAd
##02
##0g
##39
##48
##60
##67
##81
##85
##95
##CZ
##JA
##Po
##Q6
##RY
##c2
##dor
##ela
##em
##iPM
##ica
##ilia
##jo
##nda
##nna
##o6
##pd
##rn
##sd
0skwjSEp4YFaDzi67N6z
123
28xuYsC4SGJbHwKX1TTf
2DF5ZBklEkAJDSPaAIhq
34
39
577UbVZCGGQYyTQ5IuQP
58
6j8T9IbZjOeki1RHZ3uS
6rSabtSbBcnlJwiNxCGz
6zxuPBRIX5g0h4MkNTuC
8Sw0XJxDqV5jNx1WyEUf
9jfVHsr2fn1gIJKZg2te
A7NKSI8bQ57USM5g0vT9
AvwYPiUChm3qKYMRjCsY
C7jONR2SOR16dE8ecf8P
CoNZsymhsmteqKClVzFq
CosuGOzNO8KnmSXuz1QJ
EV7zqdFOqSQY977FBFrp
F0q0BEtNOfwvAcPkndbX
GixWs2cnMQoVC4d16FbB
H7hvEwjKX5H1adCGgskj
HgvR7OToFJznJgAUx1nd
IOfP5LOnsR21B6wsdLcp
IfHJvadg0Zc2Gf9p9nWy
KvzMtLwW2CqLaGPdxaAV
PScnVtDgYy38mtogwRLt
Rp6AkTEZLQqrNUsWq2Uz
RzeKtKKISDtroGkO8Ocb
SQMlFRTuSQnXnmDdBECV
SQmVVscQ1VhL6hDx3EyV
T3E0fBRal1ioevzHBgn7
U59wwHu6ATTdxJS2eaIk
VYlwexqcD4K81wULgluS
Vs13BqFmXkXKYq1kVk9E
XtupS0fdMGnuEry2uEFJ
XvIVFX2NNEIldqGU4J61
Y3QLZVhBfWFJggeHp7MM
ZKW9u7GuZOiA2XS6qVDi
ZpILCXF8AkkYDuYUBKZ9
aFUbW9gOSzVGBKo1EHlt
absoluto
bYe7bVeRVRPt8wNwHMIs
btVVuqec8NgAjaNJhKqd
c2M3DezEWxoVgdgR2KiN
caio
dOxnWcAZeQ9DxnkMega0
dhp3AmfwYrJtMEN0TS7e
ex
f8IIeaCf8bX6A3f3Bref
fonte
gFdjTgdN4Q4Ubj1xhD6T
gtbI8lgI5OSTJP4TafQ9
gwSr0tv4ZHU8z4qO9IQO
hImSy6mlokNvYb8ZEPrA
hLNdAl2dfJHuFcS4h02P
hgvnTW6ysW0N66dyIZvJ
iIKWWBAVcGNQiWz5fmVG
ic4ozO6P2ihCBW6SFl3h
jV5lk9ga6q4qeUSDxCqK
jessica
jzhw6ICpyyAuG3Pm0cJQ
lenWKUNe6h7oj8Ydn2Qg
mIc7yh7TOrV72p1sG0gm
marcio
n8CiCB43ORqIrL2fILwO
nRuuSJ09xWj08Gmtd93U
nWUYqsKtLFBuTaUKzcmA
oNYS32KzHUCG1mAIhvkX
ofEcd7a53IeLYm4tZajD
ovKTSvwRe6yOkj6cNKL2
pme6HfzQcM2tPfErhfc2
pmiOSRWV7Cxgm4dAEE4G
ptFsS9NDzRiNpP06vTTU
rCggioTQMvpXmym03HyC
rrmhDXV4E8VKpz1E8skb
s0AMxLFDkXuQcHY4PZlx
s4TRa4Vbp0K1SAFeNT9O
sFObdQf1UIUKZ1oXnwuu
sVBx1FjAVHo5AsUFg5rp
santos
snT8A9g8T9OPBMrDGwPd
unidade
v88qrllTmnTGPo4CIHxH
vEXWLJ1P8dCeX9ETpvEu
viLkheON8WEIlViu1ULY
woCI8S28lDbJXGoFERY6
xNQ2jLfGzFFplDN7NekN
ypdVpq11bAKTTKk7r0xy
zSv4ljF36GIDmrWI0Kdp
zwR9m4jGSzfXSzp6FLDP
##21
##30
##3x
##51
##56
##86
##89
##93
##BZ
##Ef
##GN
##HT
##Hn
##Jz
##MP
##OB
##OE
##Ok
##Pp
##S1
##Td
##Tk
##anco
##bt
##cq
##fP
##gem
##gia
##hW
##iro
##ito
##lb
##mento
##ns
##od
##pc
##rf
##tb
##un
##uz
##wy
##xr
1P14qcw6MUgvFlnWz4wK
2WsTv1QozQd3V8iVnUZJ
36
3CwZmKfrFpAoWUmQOhaK
3S0tMCC5HZYPop3wmkkE
4eb0iZAF6eT0Inxf2rpA
4oScWlDQTB6lEZxarxZ8
69
7n3V2RxfbmlVr1bv49DP
8K6dYm2ESB2zhOq99LXk
8qdpQwDUVjJ30O7dvDAp
9SdNNhzmuF7aGNtz0KUV
9zjej38RfuTYHVrzx0Aa
AnmnyVwNLBu4Nkk7tL85
ApXewiE8sf6jzIL9su9V
BXqgja391oQU32WEfO2G
BffYCwYXWC4mfU63k1Jx
D52iAt0YO6bLH0A7Vmkg
DP0IpEtwYGiDk2Co3L7C
E2iGDLJHtPBPKTnfNist
ET8SNaKUp7GbWq1XFaOx
Eh2GI7clFAj67G0h9Hkk
G7jIzCOXYbkkMo4EeS4r
I0CkfDA7M29p8g8Ay5Ky
IOb2Rr0uWvDohQWMrndy
InjOalfUQmttr0ybqzZ7
JLctSDIO3GZpM6ZwO0qJ
KBXZFeYA2okP1Mv509dW
LOTQfXxJsDKbRrvph59q
LvSz6xr9jo4J1UGgkuAl
MFTXOlni11IYA9qD1qcY
N3q3yFUhJAkyJaMWDbhB
NBxUVDxu8rTThi4a2GeR
QNnUscBfYOjrQH0iI1nI
RQFGosPYcD7PBEihkGT6
RefA5DJkkpEgaykqy90f
SHKGocKYqaKYzbhkVHSL
SdPVok82PnFPYcW9O2xg
T71qaVYrJc0wy4GRIfBN
TZwSpSeWYEqsMKmXdYDh
TfjHX3XASZyYjn8Q8sgk
Tto7gqHDm9FDqPQUkgnT
UfGdS6JbFSjrZf40BE5m
Up8GcM0riQfz6zuT6VIg
WELiyZ3Tdm8QhWxqH9a5
WvPHg0lE7QOpnuAbqWoi
X3IitVR8oz8uabOUIWoW
XKQCQNbGgKHCCFCixaE3
XrzK7UKEBKzIaU2FF9Sb
Z7n5iIbqwbcWbHt4JBhc
Z8eTM89YKQ5EoVZ9ChaX
ZL4VyY5oJV1CSd8Tzfkn
ZhBaiY9vgObeyc5Hmipm
ZrXC6MpsCRTvNnvcFanb
akOHGuQD50gGoaUR4Atn
anderson
atn9NCdKAxI0uNpvHxkC
b42LGVKDxUfi3MpQxfwC
bM8cT5bg2U2iFTFQ5PF3
barbara
cYqFzfyagMydSAITdIYJ
campos
costa
cwprjWsEpxa9aIIj5c3H
dbAHjr7gHssepCfWP9h3
dr
eduarda
egg9ngppkF8NXF7LyBvX
fC9NDhBvnMZR1DtiOlul
g3Y7bJm1MnJk15z5a7IE
gDFeDdeBMyf7hqPb0Qya
gVeaAzvLWPJXeZhQwdUz
h8RZfePDpLoRDCSi6RAv
iTxeEQpYCTlWiFQfbWko
iYs7Y4tk5WnkRnCTIFy9
imortal
kJIlZXwUtskBhFEyZHmO
m22sTJvdVREOKDU9AwQT
nnCz6W6LuoyMhoARYnjC
o4jfgSehxdf0OXdClshx
oh7qQeACEkA62x1NwxCH
pUq2EeCVMNr7TJ2YeJfI
pdf
qWz3eHILYiuD7DtTYLsq
rA3cvrwMM9wC5WJorysH
rQ2zGqhGvny7RCgBZRr7
silvio
sombras
wsRKbUA9pY82aTuZUqRO
wtN9t8FbbhWDjgrua2xP
xTpNoskIeB8sx2C96PJv
xmLaGcOWFwRHNClRW9vU
ydeGDbD2LcpbLkQPSXgc
##19
##1n
##25
##2S
##55
##6k
##70
##98
##JT
##MI
##Nf
##Yr
##bra
##dio
##dra
##eR
##ena
##i6
##idade
##in
##nica
##oi
##ol
##om
##ora
##qp
##rB
##rica
##ry
##tC
##tf
##tica
##tina
##ton
##uw
##yP
##ça
01
2uL40DgHbeeWz9ANPNq2
2z88p7QVT0Hurekps3oW
31DSM6ZPSwWzyViOu5eD
41
43
5FaVsk9Z3q0aMxOGLGmm
5XdcYxtnlQx6TuLhSLIp
6ehBDgq3h8bCgluMPH1b
7j5qyqjICoHGrKPAzXo7
7qPztuPaWA77slIlJt7j
8nWaeLDIoHVsNPRl1iHo
9e8lmUoGI7T4DvLwdqBj
ByNW83RmnNJnd3qxqRu6
DclYkEt3MHIftUPXz5nm
FQCJERrE1SM20edW1VmQ
G72TTaljMtd9UxhopGE8
GylTuMd2YpbD8gKkVxsG
KElw9Znsgqrq6XkeJGlA
L32ufwBfyQ45iV5KUB9f
ML1ynLin3TyvcNjKdoEr
P0Q0e8bR5frDIcDVA8UY
PuFVhYCrnCXUMVP7zX0k
QCjbqeTIcI2SGDiOS04s
QYOwpPiTkNqK4tOXDGfh
S9EH2hNtpERlXmlY6Nbp
SG3gT3JD4w4r26kw73KA
TQqiI7D8MHdqiuTehRfW
UUOct3KVdFKv8YcxZhNl
VLnT8qpYM3Uu5xCN68hR
VV2nvnlZLlSuP4fGkxXK
Ve7T2lNrL8sJrApGquVo
VjEwMi2XA5EhfISwvHh2
Wo2wCbMotDdXMJgdhZ3T
YTNTeB9x5QG81nnMm30a
YcmLXQSpQfVQ2nNR90bR
YufBWFwVr4XGXgRvnkc4
a7AjX2mXGqhrNYhOG2m8
amgLi62y6X6oUxi3vasZ
bkk7Q1qPfJbVxyBFHycJ
br
clara
com
eClQWCera2FT0dFyhyzq
eNoNwYQyOHjVnkD7Q4aW
flavia
gTEMxAMC0SNWecj7rmqp
ghizQKzwC7MoTvoBvqPY
gznqI5VonDoUHbeoTO3F
hCu97Wr4B3hFk1NEjPLh
harry
hwyBIA86rbvEALfK9JAn
j7PK6JudISSFAh6Wo7pK
jaqueline
jeová
k48MxSjYSCxkYCsb0UQd
khJ0Ub7TXPleezzgUsXj
la
letícia
mBRWXhYqpjHn6d27E7Wp
nCMaLcZCHsFYCCMgivzj
o5F620OqSw2a4T7E2RLw
oWTp3Py2GHmtp5HnFTzp
off
otavio
pegadinha
rIiGXw2EI8oo6Y1yJTLd
renan
rosa
sTosWmFoe6wyWqQX86qe
sarah
snnOHZDW54SHDbLzmvzH
sqWt4nx6fYCDKS6oQ1un
tYCijXr0YVRCS6XOoXpX
tldb8CK6djrRleaoj4yI
tnh1
uFBLwQGGwexORZaGzgr4
uniasselvi
univates
vXmFPzVqOLVxDUV167Co
vitória
witMTRos2MEMK2thMzZ6
wkYcHd244JxtoQVMisQq
x2x5Dj8LlGNStrP4ef6Q
xPCveOB7UVyWJEPLQJPa
xt72IP6iJ5vHY03AxXka
##0s
##0w
##1C
##1x
##22
##23
##29
##31
##3K
##3r
##46
##5v
##64
##6b
##71
##7M
##7x
##92
##9B
##9u
##A9
##Ad
##Cd
##HH
##Ii
##L5
##MZ
##Mg
##Nm
##QF
##RJ
##SJ
##Sf
##To
##Tu
##XQ
##YF
##Yd
##ay
##ba
##bi
##cos
##dC
##eV
##eiro
##ente
##fB
##gc
##he
##ic
##ir
##ita
##ix
##m4
##mas
##nI
##nN
##pe
##ps
##pw
##se
##sia
##ula
##via
##za
0lwUZolJEj72QIfVfMS7
15YANe8fDolM1Ip84OI2
1sHM4tDmlIFQghbRDTWq
2011
22YjvtHSB4G5Lh0Wbogk
2gAnfb6PF8Acg0xsIc9P
2mknKRdga5CBHqbHSi8g
3ChERsRK5W0VBe9hsbfZ
3DIOwYCiEUjbaC4C7FfM
46
48
49
4RxR1FUgmZJwB9BxemLu
4TVP9vJgXLEQKfodY3ev
4gMgILuSJubY2lry2D7T
4vNmUcGUE9gofCTvbqsA
5GsUr4JkT3pqz7xEnUaD
5daNWMxNCPIBhqsv1UH9
5mqcWO6w2JhrNQ0GqbN8
5mvLsKOjlvbMJiwIIP0Y
5uSqBPoLZmqEVL6IRSKM
5wU3Ogq3eUt6rjsejugZ
7Vf6ZqWHCWJ35QhPRDKv
7ctUTxx403fkOg0onXQG
8Mwn8QZo0em7cK1HbHDq
8OjezwPBYujqS7MaN5gQ
8VgFhtZ10RChvjqvAwOO
95
99MKTZC8MdqOnZ39GfQE
9a4EDoXGUeTfAG62uwIm
BUUrWeeEAzWuCyzeDXPG
BmJd9caS5JYCB1uJlXRU
BsieDFSxBdxIN4WfjO2q
DK3PpROcW9TrW10KKGwV
Dkhhur9KusR14wrCFQaC
DvpSywHXffrowjbMYPxC
E37CnhsburwaAtar2tcU
Ey1lqBt0OW7o2ipoF5gg
F7gGvOi4bBvC29CJX7oj
FChVRHPoqDIte8EXmkZY
FQ80KpHrGbc8OZzq3PlT
H6XVgfcoDg4nrM7REQFQ
Irt44oYwi0eNVPGq6Zqf
IydI5WjZswYpelRbRxiE
Jnoff720Z00hsqJIqC3n
KG1WscSVTbrPGsHtHKQF
MElKCgfbEDxq0SHeDC8l
McxHjX9gCh8Ky6NXdrzs
NJBz8M0qTXvwAC0uQ7Bt
O8OZxp31lOVOgDibHbah
P5888HIRYWckQL6Ljieh
PJS9pwkTXwZdG0bcQ7gz
QBjox0xNMIEtt75Kc6MB
QyeEUKNJw4jePqkohuII
R674fC8SYBDZOmFl8Ox7
RfwztmbtowKhHy5QzfqA
RivbQ1CGCvm7xmYJxp5W
SAyNfYvRUX1VuFMAHJ7B
Snr9ylx2oXcaULdJmvrF
SqVwUeaDaW5fgiwfaWmJ
TDcsUcfLWr2CIozvK4PS
U19RH2Zkic7jlrbGA3bq
U2AZY4JyOYa5EyygVVQt
UFF5WkwKO5vrwMWk3jTS
ViwDl1H6punn6vy6PfMq
W0S77tYVqKqGb7ovjps5
WHdFx0ZLzomXawdPnF3C
WR2VPf8zn5PzCDw2v0z4
WVFuOk5zXG2x6lxji7c9
WwKsvLbBJg2AFZPua17F
X1x4QppltYDiismWvakb
ZAafvm4cHIfIxW3tEtnm
ZRqjXJtMWbSQFuxPM7Q0
a5uHZ9zSKRF7nl5wqGv8
aVLlTenmW0Mc5E2x15X7
agencia
alfa
angelica
augusto
bHEWTA0OUG0RGsSfTYx6
bKAubPAAo9EQz501aXZF
bYiAkbSNf4DJJ8OzzPSf
cVlkuJS6VGaiqENmilJY
cabo
cnh
collor
dLBpDdpvaxjsZ47kM17q
dasJcBToStoFSisBruoo
dona
dw93zv6aQTXRWU74HQHy
esAHonBHi5AcXTcBcSWL
fYmIfpsFdHZiSEbS9Dgd
gDRH29wTtPvqcFt2reCh
gTmHACfZkJPgyLpnEu1h
gkySnxNSnn1wKTFRmFcm
gu3QGvpdxQKxbsVcr6WL
gysOu5irnyoLHwraixJK
iR7JnbFXjJy1e7YJAUlr
iiCQDnkPSFqtviskqV25
ines
iv
jKLEEPuFk0ElU5lDDzz6
jMWDPiQjZt0uyVVr4dea
jwc8DC2C4vlw877biIzf
kDx1eFbZ2nAdQAZ8ZH8P
kZkqugRklPth0jsYo28R
kj4UPiXafRwEcXL4Ke0H
lu8nnjpYsLuonmSLuDOG
mario
miguel
mm4pWORhBAJkWQw84z3l
mr
no6B7BQJfj5Bd0kYgW2X
ntp5pq1Z5G9DRxuSQQKF
oBt1E9SddxYi7qruTNFo
ocBLfAnyUtFDietjmPGy
patricia
pia
priscila
prouni
puRJGPVeht5isTVVtTn7
pvcmtItOxytM4Td5wBHf
qJSCNpZMOA6Daw7Or2RN
rick
s68W7AQ0MTqxJR5d75KR
sBPX8Cn5jLwZJxBQe80M
sSlU2zEffRlWIys9Qr1f
senna
sofia
souza
tUubkWR8bpXHd0sce7hr
ty53dWBP6gKWpDtA6gEl
vYwJRXdBytgvvqB7muOY
wmiBktRBgTW0s8831v8g
wpSs8A51m6tu75uOgGWq
wwYw947h7354pc7ASnRB
xCJ0z6JQHEpbaoXPSeiO
xJJNDR6rnNCX0466yrmY
xSPziR9QYoyQaPzBEYZo
y3jIT4kY22nVINHNnFMT
yoNzjn7VxthoFBAe768s
zlD7M9ucDYwiDnxGMGhb
##000
##28
##4J
##57
##5h
##61
##68
##72
##78
##7b
##7i
##8F
##8Y
##8m
##91
##97
##AR
##AV
##C3
##Cr
##D9
##EQ
##FW
##IW
##Iu
##Kh
##Kr
##M1
##Mb
##NU
##ON
##OQ
##Ol
##PG
##Rl
##Ts
##Ub
##V0
##Vu
##Y6
##Yf
##ZG
##df
##gI
##gv
##idia
##itoria
##mN
##np
##oQ
##p2
##qJ
##ql
##que
##su
##t2
##t8
##tar
##tes
##ua
##v2
##wu
##xb
##xd
02
2WJIwmkjkp6BalMH5hCR
2qIbpNKGXosiSZqtWlfm
4WytBiqlxslvqsGXzBjU
5GNCrZ2JU1dQxL4Ef1oO
5lsm0Q1YfcTpJxHytPoz
5pajVhgUamDvx8tOprDc
62
62OXAvWhtwRk3TR8wbsJ
65
6Eci8feR6DXbEN28LiRt
7YzStJJ2103JA9z5N9ui
8TqvjjcKAjhupbkJooko
8iNM82xLDWAgV6OrHp2e
8jx7GRFUttkMZEnX6Ts7
91
94
9OXf3cujHv2NIcjBHht9
B6MXtgs9oHA3TruVyX4A
B7TrBBthKMK0C3RmRiOi
B8dWzVnzBpDUh3kT8Poe
CaagmpdG30k0O8aEx6RZ
DXbroh33wqCggu65WyhC
DovMTadCkybqsh7qxd3b
DxgUNxKr5qMabWBaRrdB
Eai2pICuIhXtmTjGYniQ
EbVnfe7Fldx9q0TdSYiz
FWXm5OkX7tORh8jGOFMU
FwwnlKLftiddz44M8gZl
GTOu4EfXBo9qtcWgh9iG
HVTVAKlAijstdEtBV9qe
IUJejOWHnfwYyyp1t00k
JTQJYx7INd56ryOkgTE0
MNh0Q6iiDV1oiIsdmOhx
N25q9GOuDMSQG8aIAz43
Oa851tEbKg94oPD9MEFA
Ox7oocDmdXCn0a1X7CpO
P8R8boAausQOTwgWLJez
PInw8vYgb8Kwj6aNTSok
Q3HJgjyRZbfX3mTOyAwx
QKA9NAwVbYJWDFS50Tmn
QZIc7OTK0jFT0hq3cRXz
RBslIdJ9HJbeiQBbHQlv
RuywrIUJpwkmMaEciLIZ
SnLBttfYKwAPcVTndCTu
TaChJkErg1yF4IclFP7C
TbN2MwIFuIA85Xm9ONkK
Tjjs8wAwjfKBtWTh2jSs
UWoqMFAFvbSCTF5BCTrH
UtBn4zabGC9jx98ILZjG
V2zaX3vdEMadUXk0CnMy
Vx23Uu2Xr2oKM76e2Xxp
W5LCaIoKxYHgCRNJDjce
WOw8pCWvoy5SBrP5gY04
WhZB7BLeThOmGj5xOB72
WpW1GRfJ0nIr4S4sJ5kp
XGE4om4WFl6ZixHckeBA
Xw2iSTUw0tTz1AwWgMmp
YPLUcREVllZPEhvI1Jgc
YQHmsgdcJL9jM93OOjQt
ZGGSW4OL6EvJEI69GVK8
ZhS4YjkScjA7VLP5dXUT
a4svesaOsuK0cgpa8bBq
a8drrRFJcUDaxRsHAuif
aDH5J1p7PEteMQRMWfvR
aa3bBA5XGGrAaX4awRy4
aaAJ4jgxYNANs0U2Y3MR
bbylUUqKTTHPwSGqM8rj
bdOBOoX5XKTgzeC30tqM
bgLx0D8FHgvetLLqhIeW
brAOC5De8YSuz1xCpcdW
bux9H8SawPp4kt6VdeAz
claudia
cristiano
dane
dpJFfGuF5yl4faC1ipMy
dqXP3rYauPgkBJYp5w8y
e8oC1wVAonuApPtvqyjq
eKrL922rrNURkU3G949z
edson
erica
filipe
fábio
gSEoOEjaKRj818yomlx8
gb5ESOvv0zuoyWRfqg77
gilberto
gjdfdQfuJ10z5AzxcdFY
gvOIOqfEvW4tgdcoVqEm
h5ECRJRwwquLe8T2eqd2
htLyDK67l5UbNxgyZOIG
iPucgNb2RgRh7xvZXU7j
ifmV1QtCxNjay4Me0yYD
jMOD0jzvFwbv8qm2nYil
jose
kzLAkLBLe8ngrBgkI83J
mCZhSv8h0rHtfVA1SZIN
machado
n6wjX3Tr1U11TwSaGG5l
nicole
o1AJpuXHjv0ufMKyH8Bj
oSzN0mpMSiymPwHcLY2K
onZJkMarF3jvuaEYlo0c
pIZvI4bwYoBQ8f28IWLO
pjwLa0mq7Wuybtel1Aca
q250ECUGqs2YOZC7nETP
qPmRM1CjCstiwnva57VD
rE3N0BkRmwox45mVSnhg
rXYnaPRn71M7bwoTPpZC
rt3XdlN2jmErMET48zm4
sW8QYMhJJQf7M653xD2J
t8FJrptbbcV6vtm8uFhs
thais
ti
u63ArwOduuGXkwTekRhu
uAFJyee6TxYQi5dSauMN
uno
v9nNphRHg9qh49f3W9dj
via
vol
wxNK8tv84yfSX52IwPyU
x2NFEmleDkmiFNkPduNg
xBaKilmaut54yjwJNEfI
xywoK0rbUkTsRDSBhsjG
yKBJF5sskWq23mlcQho1
ySW2aWlQsTh6Ig536b9P
ycNbgrPTdohVjR1wASA9
yicbYYvuvtjexf64XlFi
zW67IPQLZFdqJZ0qAtzy
zfscYJDATn3sNS5HzC7L
zh65Lea9YW6gFPuuHIWn
##05
##0aC
##14
##32
##42
##44
##47
##4s
##69
##6pG
##6r
##84
##8v
##9t
##Df
##Ds
##Er
##F7c
##GA
##H4
##HJa
##HK
##Hl
##IQ
##Jw
##Jx
##Kk
##LD
##Lc
##Lf
##Ly
##M5
##Mh
##Ns
##Nv
##OG
##OS
##OhY
##P9
##PJ
##PW
##RL
##Rm
##Rt
##T8
##UU
##Ux
##VPV
##WG
##WI
##Wb
##Xp
##ZO
##aM
##aU
##af
##ama
##ardo
##bY
##db
##eQ
##ec
##et
##ey
##gD
##gU
##h3
##hf
##hi
##ias
##ido
##ig
##ike
##ing
##ição
##j1
##jK
##kI
##kN
##kR
##ki
##ku
##lay
##li
##line
##m8
##mI
##nde
##nio
##oa
##ome
##pr
##qm
##r8
##rado
##rcio
##ri
##rq
##sD
##sW
##sio
##sos
##tro
##ty
##u4U
##uB
##uk
##vT
##vas
##ve
##wA
##we
##wi
##wq
##yY
##z8
##zc
##zh
##zu
##ô
0HgW69ARexoAD8I3U4eR
0LJxbcTlp9pE6p4pyPBs
120
1VrZy8CpklivpprJ2rbk
22gS3Z8cEiuBuRDBkr2p
3G5sI6wrD4kzOul9Ieka
3w8myPVzOYzOrFA33RrP
400
41WtRNItxmARTwGqkD52
42
44
4FKbYVb10tekhUaYcSec
4MeFjMEP99gATjiQkrrr
4dmKoOtF51aMyxZKDpWr
4ecZx59DFXYy7P6uNUb3
56
59XGRAnxMutLA7dFSpeh
5QPEaiUNekJErNMGP2gc
5V14ZQObowAAPGBr48F4
6IWGH9H1smoR6J8XkjpG
6QMF4L009lvwQnCpTGHO
72aoBsBxn9VpXh6TTvp7
7zzLvcDL1fvvlQyCzgxP
82
82XODb0ex3BeC2axPT30
8A64aHpqBVtH7GyFJFf1
8AcdXjEig0JBzuVX6xvy
8TQJAfCt2L5TzMz79fQx
8h2vuQSL5gEXu3aFZ8v4
8r7NA7ut143bFpraAxLO
9BWrPT2IXfynuoIaSxmI
9HiVvaD7Lyiyx0WpM87P
AR4rCvLswVWXXw7Pu9ZL
ARYrwMxEQlGBoIoydBr6
BK4rKI5rt26btDdvCXhN
CUesUlU5OaTEUYkV85o0
Cd3nPc9wmUa9G5qSBICD
Ck9mD0d938DKReLc1Xad
Dq2DRaG0LqfqiUjm03Zd
EeND9pVlgVJJLLM2mAVo
Ej5GFoEmwP0OqF5f6NBX
FjSuGwyFdsQBHPPlK2vt
FjYaDEq5xQWn7HaV4Dpb
GKT8vzYygVereoRb2ad2
Gk31rZH7b9dYL6J9yIZe
H0KVozG0wXPQlXR68iix
HBJb60q9wLAyyjcKhudx
IZuqGBwcSxca89t5sVLq
Ihfttt0lmcJZrZUDqBh9
Il8pYXKbWnK9P4cZDRYR
InJiqK0h0nRdGP4Rh7M7
Iy37n8oOlNUzjWfpVelQ
JifiXyRuG5MstrXQUow5
K37Dh9BjbQVEmLWVBWzA
K9v7IcALQI1aurZJDMPa
KN0zrzrmahqVM3wg5OIk
KN89qEIKdNsR1oY4gLt1
LOFc03L68pTVBrNu1Aia
LS0aB6SuDhzRq0D6F5MW
LYQRgBYvVYw3BMCv7a9J
Lk9eEpXOlBuAxr7LBuUq
MKbRnOQCqfzVzVs9KxQ6
MSASzw73yZYpdfUyt9QY
MxYlhZsa8mk015Qsg4eh
OgnUhuca7tpGYCPklBlh
PC3XXmhOXmi5bk4ADdt6
PJz4ySfJVYSsphKl4KTG
PMAuhiYKbMBbqrwfHWu3
PSPjjYWgEpE4U5zNwC73
PaE7QQPYDpy9ocbIVY0a
Pkg0HYXk06LIJvIifN7u
QGehjy8fs45RQM2pVk1X
QdRqisGpZbughBnPCKpF
Qlv9Flc2RgSUYEnzRWxE
Ra1VBKJeKvrbm37ETMsa
Rb5mIlkT3q2qIYm1vPkp
RuDWUciE1bT23PIVM1LY
SiXdF3IhxdpSMXcT8SRH
TJkmYL1YZxtKO8BS8zWP
TW2Iulo81ehLVVK8ZXBW
UT6UlMkU5bO0Lo4YDp9T
W7E8pZi0tUTb3WOHQGDs
WBtt4PLVGA8bUfmYm5ZT
X0n740aDnUzUsWtfv2ES
XMRNne9vzuK8uofRyTPy
ZddjQtJzVG840xopwUIq
Zg2Pp9WeO5BJwSFnT0r4
ZguhO87F3KG45xUaZA7P
ZwBOTSGRBIhe0CVu7f1b
aevV9yhaeqiM2HuGu3An
amFx46QdYfS5aC0GZ34V
anatomia
andreia
big
cG9pVaRdGa0gYxGup7lV
cesar
cisiSETJKAyp4O22Kqek
claudio
criada
dppcxUaJ5BynWIsjNYog
eMMUZIGdCEW3wMSLfY5C
ebS39HZNh604Ndet0GGt
efeitos
eqvzRRxcHyEaZkkHGKdg
eyue5xTeVvaQPxRLMf8a
fGLoJm7mFTxOG1dgwg6y
fJ8DXd3QdXUOhqct0Ofx
fbAMGlxQb3FVxE9eJcVc
filho
gKcIwx1iiciwVPMbJxOI
gq7dJHpy2vUVmRWgGXhO
helen
jOoiP5Dl7EZOAccNQeaX
jhGb5qatygLj2GAR6Iiy
jkqjTRj6ZTy2kZnSVVDl
jpcRxcFUlXKOY9WLrGqz
karen
khEKYilbQ5w6Y35eSrf0
l8FjeOOOKSrPvKGKKBe4
lGpJSke2JegiIQf6hQlk
loCRmqX04B7NgzkcvJzc
lucia
m0CVJEcau2xtmKg2SLH6
m1mqhZ7E0aWHxEb6Mk3m
mQYkz3pc6EWl7AqOu0dN
mlxw54hkUd6LVjmEQorZ
o3x413hRg9pFeHHlOeMr
om0SHYeOwapycVARZ7EE
pEdRN5IDpUwlLpbNWokM
pFyGuAPBU9pLokjc26jG
pereira
q4emDacewEFkmVm1ZJQS
qn4soe7qt9TPV0Kj8k7f
qnjwvHDyqXUQDeRPHTPN
renato
rqnjkqtbgmevQ5BA74dD
sGO8bQHhOYSs4AH48WtX
sOJRzLdQdIVVt7YvYliD
sQhCCYwHYlec95ruiKrp
sWbdGpmVYRG6BVhaZBMK
sYWRlZTsDWfZIwRXOCHR
savN9LWrTeQdwxl9UhHb
singular
tAJkfdpeWZc1DSQxf238
temer
teqOmLUYCOXMTCP3YCv7
tjigZ8EcAKck3JBdFBIV
uVCCLhGq9DNXCRvqh7xp
unibh
vCMC4qdBN8HOQqgs2bhI
wrhdU52xb0z8mxJwBC3B
xGbMPwutCIHsNIWNGRS9
yk3BpmlNWQFN7m8ZBBmi
zJE3LEkpFV7VxgCPU2Eq
zr2MJfhAKfm2UTRDJCYz
zyM79loASlBZn5u1oXku
##{
##}
##á
##â
##ã
##ç
##ê
##í
##õ
##ú
